alignas(8) const unsigned char trained_tflite[] = {
  0x20, 0x00, 0x00, 0x00, 0x54, 0x46, 0x4c, 0x33, 0x00, 0x00, 0x00, 0x00,
  0x14, 0x00, 0x20, 0x00, 0x1c, 0x00, 0x18, 0x00, 0x14, 0x00, 0x10, 0x00,
  0x0c, 0x00, 0x00, 0x00, 0x08, 0x00, 0x04, 0x00, 0x14, 0x00, 0x00, 0x00,
  0x1c, 0x00, 0x00, 0x00, 0x8c, 0x00, 0x00, 0x00, 0xe4, 0x00, 0x00, 0x00,
  0xf4, 0x2e, 0x00, 0x00, 0x04, 0x2f, 0x00, 0x00, 0x28, 0x9b, 0x00, 0x00,
  0x03, 0x00, 0x00, 0x00, 0x01, 0x00, 0x00, 0x00, 0x10, 0x00, 0x00, 0x00,
  0x00, 0x00, 0x0a, 0x00, 0x10, 0x00, 0x0c, 0x00, 0x08, 0x00, 0x04, 0x00,
  0x0a, 0x00, 0x00, 0x00, 0x0c, 0x00, 0x00, 0x00, 0x1c, 0x00, 0x00, 0x00,
  0x3c, 0x00, 0x00, 0x00, 0x0f, 0x00, 0x00, 0x00, 0x73, 0x65, 0x72, 0x76,
  0x69, 0x6e, 0x67, 0x5f, 0x64, 0x65, 0x66, 0x61, 0x75, 0x6c, 0x74, 0x00,
  0x01, 0x00, 0x00, 0x00, 0x04, 0x00, 0x00, 0x00, 0x9c, 0xff, 0xff, 0xff,
  0x47, 0x00, 0x00, 0x00, 0x04, 0x00, 0x00, 0x00, 0x08, 0x00, 0x00, 0x00,
  0x6f, 0x75, 0x74, 0x70, 0x75, 0x74, 0x5f, 0x30, 0x00, 0x00, 0x00, 0x00,
  0x01, 0x00, 0x00, 0x00, 0x04, 0x00, 0x00, 0x00, 0xa2, 0xd0, 0xff, 0xff,
  0x04, 0x00, 0x00, 0x00, 0x01, 0x00, 0x00, 0x00, 0x78, 0x00, 0x00, 0x00,
  0x02, 0x00, 0x00, 0x00, 0x34, 0x00, 0x00, 0x00, 0x04, 0x00, 0x00, 0x00,
  0xdc, 0xff, 0xff, 0xff, 0x4a, 0x00, 0x00, 0x00, 0x04, 0x00, 0x00, 0x00,
  0x13, 0x00, 0x00, 0x00, 0x43, 0x4f, 0x4e, 0x56, 0x45, 0x52, 0x53, 0x49,
  0x4f, 0x4e, 0x5f, 0x4d, 0x45, 0x54, 0x41, 0x44, 0x41, 0x54, 0x41, 0x00,
  0x08, 0x00, 0x0c, 0x00, 0x08, 0x00, 0x04, 0x00, 0x08, 0x00, 0x00, 0x00,
  0x49, 0x00, 0x00, 0x00, 0x04, 0x00, 0x00, 0x00, 0x13, 0x00, 0x00, 0x00,
  0x6d, 0x69, 0x6e, 0x5f, 0x72, 0x75, 0x6e, 0x74, 0x69, 0x6d, 0x65, 0x5f,
  0x76, 0x65, 0x72, 0x73, 0x69, 0x6f, 0x6e, 0x00, 0x4b, 0x00, 0x00, 0x00,
  0x0c, 0x2e, 0x00, 0x00, 0x04, 0x2e, 0x00, 0x00, 0xd4, 0x2d, 0x00, 0x00,
  0xbc, 0x2d, 0x00, 0x00, 0x6c, 0x2d, 0x00, 0x00, 0xdc, 0x2c, 0x00, 0x00,
  0xcc, 0x26, 0x00, 0x00, 0xfc, 0x25, 0x00, 0x00, 0x6c, 0x24, 0x00, 0x00,
  0x3c, 0x24, 0x00, 0x00, 0xac, 0x22, 0x00, 0x00, 0xdc, 0x21, 0x00, 0x00,
  0x1c, 0x20, 0x00, 0x00, 0x4c, 0x1f, 0x00, 0x00, 0xbc, 0x1d, 0x00, 0x00,
  0x8c, 0x1d, 0x00, 0x00, 0xfc, 0x1b, 0x00, 0x00, 0x2c, 0x1b, 0x00, 0x00,
  0x6c, 0x19, 0x00, 0x00, 0x9c, 0x18, 0x00, 0x00, 0x0c, 0x17, 0x00, 0x00,
  0xdc, 0x16, 0x00, 0x00, 0x4c, 0x15, 0x00, 0x00, 0x7c, 0x14, 0x00, 0x00,
  0xbc, 0x12, 0x00, 0x00, 0xec, 0x11, 0x00, 0x00, 0x5c, 0x10, 0x00, 0x00,
  0x2c, 0x10, 0x00, 0x00, 0x9c, 0x0e, 0x00, 0x00, 0xcc, 0x0d, 0x00, 0x00,
  0x0c, 0x0c, 0x00, 0x00, 0x3c, 0x0b, 0x00, 0x00, 0xac, 0x09, 0x00, 0x00,
  0x7c, 0x09, 0x00, 0x00, 0xec, 0x07, 0x00, 0x00, 0x1c, 0x07, 0x00, 0x00,
  0x5c, 0x05, 0x00, 0x00, 0x8c, 0x04, 0x00, 0x00, 0xfc, 0x02, 0x00, 0x00,
  0xcc, 0x02, 0x00, 0x00, 0x7c, 0x02, 0x00, 0x00, 0x4c, 0x02, 0x00, 0x00,
  0xf4, 0x01, 0x00, 0x00, 0xc4, 0x01, 0x00, 0x00, 0x6c, 0x01, 0x00, 0x00,
  0x64, 0x01, 0x00, 0x00, 0x5c, 0x01, 0x00, 0x00, 0x54, 0x01, 0x00, 0x00,
  0x4c, 0x01, 0x00, 0x00, 0x44, 0x01, 0x00, 0x00, 0x3c, 0x01, 0x00, 0x00,
  0x34, 0x01, 0x00, 0x00, 0x2c, 0x01, 0x00, 0x00, 0x24, 0x01, 0x00, 0x00,
  0x1c, 0x01, 0x00, 0x00, 0x14, 0x01, 0x00, 0x00, 0x0c, 0x01, 0x00, 0x00,
  0x04, 0x01, 0x00, 0x00, 0xfc, 0x00, 0x00, 0x00, 0xf4, 0x00, 0x00, 0x00,
  0xec, 0x00, 0x00, 0x00, 0xe4, 0x00, 0x00, 0x00, 0xdc, 0x00, 0x00, 0x00,
  0xd4, 0x00, 0x00, 0x00, 0xcc, 0x00, 0x00, 0x00, 0xc4, 0x00, 0x00, 0x00,
  0xbc, 0x00, 0x00, 0x00, 0xb4, 0x00, 0x00, 0x00, 0xac, 0x00, 0x00, 0x00,
  0xa4, 0x00, 0x00, 0x00, 0x9c, 0x00, 0x00, 0x00, 0x94, 0x00, 0x00, 0x00,
  0x8c, 0x00, 0x00, 0x00, 0x6c, 0x00, 0x00, 0x00, 0x04, 0x00, 0x00, 0x00,
  0x3e, 0xd2, 0xff, 0xff, 0x04, 0x00, 0x00, 0x00, 0x58, 0x00, 0x00, 0x00,
  0x0c, 0x00, 0x00, 0x00, 0x08, 0x00, 0x0e, 0x00, 0x08, 0x00, 0x04, 0x00,
  0x08, 0x00, 0x00, 0x00, 0x10, 0x00, 0x00, 0x00, 0x28, 0x00, 0x00, 0x00,
  0x00, 0x00, 0x06, 0x00, 0x08, 0x00, 0x04, 0x00, 0x06, 0x00, 0x00, 0x00,
  0x04, 0x00, 0x00, 0x00, 0x01, 0x00, 0x00, 0x00, 0xeb, 0x03, 0x00, 0x00,
  0x00, 0x00, 0x0a, 0x00, 0x10, 0x00, 0x0c, 0x00, 0x08, 0x00, 0x04, 0x00,
  0x0a, 0x00, 0x00, 0x00, 0x03, 0x00, 0x00, 0x00, 0x02, 0x00, 0x00, 0x00,
  0x04, 0x00, 0x00, 0x00, 0x06, 0x00, 0x00, 0x00, 0x32, 0x2e, 0x31, 0x31,
  0x2e, 0x31, 0x00, 0x00, 0xa2, 0xd2, 0xff, 0xff, 0x04, 0x00, 0x00, 0x00,
  0x10, 0x00, 0x00, 0x00, 0x31, 0x2e, 0x31, 0x34, 0x2e, 0x30, 0x00, 0x00,
  0x00, 0x00, 0x00, 0x00, 0x00, 0x00, 0x00, 0x00, 0x2c, 0x68, 0xff, 0xff,
  0x30, 0x68, 0xff, 0xff, 0x34, 0x68, 0xff, 0xff, 0x38, 0x68, 0xff, 0xff,
  0x3c, 0x68, 0xff, 0xff, 0x40, 0x68, 0xff, 0xff, 0x44, 0x68, 0xff, 0xff,
  0x48, 0x68, 0xff, 0xff, 0x4c, 0x68, 0xff, 0xff, 0x50, 0x68, 0xff, 0xff,
  0x54, 0x68, 0xff, 0xff, 0x58, 0x68, 0xff, 0xff, 0x5c, 0x68, 0xff, 0xff,
  0x60, 0x68, 0xff, 0xff, 0x64, 0x68, 0xff, 0xff, 0x68, 0x68, 0xff, 0xff,
  0x6c, 0x68, 0xff, 0xff, 0x70, 0x68, 0xff, 0xff, 0x74, 0x68, 0xff, 0xff,
  0x78, 0x68, 0xff, 0xff, 0x7c, 0x68, 0xff, 0xff, 0x80, 0x68, 0xff, 0xff,
  0x84, 0x68, 0xff, 0xff, 0x88, 0x68, 0xff, 0xff, 0x8c, 0x68, 0xff, 0xff,
  0x90, 0x68, 0xff, 0xff, 0x94, 0x68, 0xff, 0xff, 0x98, 0x68, 0xff, 0xff,
  0x2e, 0xd3, 0xff, 0xff, 0x04, 0x00, 0x00, 0x00, 0x48, 0x00, 0x00, 0x00,
  0xc6, 0x2f, 0x07, 0x81, 0x75, 0xfe, 0xd5, 0x2c, 0xfe, 0x39, 0x7f, 0x23,
  0xbb, 0xb0, 0xd4, 0x07, 0xd6, 0x05, 0x1f, 0x1c, 0xd2, 0x34, 0x45, 0x81,
  0x14, 0x20, 0xc5, 0x28, 0x32, 0x12, 0x32, 0x48, 0x18, 0xaf, 0x81, 0xc6,
  0x04, 0xcb, 0x30, 0x10, 0x81, 0x71, 0x05, 0xdc, 0x21, 0x02, 0xc8, 0x01,
  0xff, 0x7f, 0x02, 0x01, 0xb5, 0x00, 0xe1, 0x95, 0x05, 0xe3, 0x81, 0x06,
  0xe8, 0xbd, 0x05, 0x30, 0x81, 0x1f, 0xee, 0xfc, 0xf5, 0xe9, 0x4f, 0xf8,
  0x82, 0xd3, 0xff, 0xff, 0x04, 0x00, 0x00, 0x00, 0x20, 0x00, 0x00, 0x00,
  0x9f, 0x3d, 0x00, 0x00, 0xe7, 0x2e, 0x00, 0x00, 0xd1, 0xfe, 0xff, 0xff,
  0x94, 0x90, 0x00, 0x00, 0x5e, 0x0a, 0x00, 0x00, 0x7e, 0x21, 0x00, 0x00,
  0x0c, 0xa9, 0x01, 0x00, 0x28, 0xc1, 0xff, 0xff, 0xae, 0xd3, 0xff, 0xff,
  0x04, 0x00, 0x00, 0x00, 0x48, 0x00, 0x00, 0x00, 0xf4, 0xff, 0x0a, 0x17,
  0x07, 0x05, 0x07, 0x1e, 0x06, 0xfd, 0xd7, 0x7f, 0xee, 0x02, 0xfb, 0x19,
  0xef, 0xfd, 0x09, 0x17, 0x04, 0x03, 0xf9, 0x10, 0xf0, 0x08, 0x7f, 0xec,
  0x7f, 0x01, 0x8f, 0x25, 0x7f, 0x81, 0x93, 0x05, 0x8e, 0x7f, 0xf1, 0x81,
  0xd7, 0x03, 0x28, 0xef, 0xf9, 0x03, 0x7f, 0x22, 0xfa, 0xfd, 0x04, 0x0a,
  0x09, 0x00, 0x0e, 0x1d, 0xfe, 0x01, 0xd4, 0x03, 0xe6, 0x01, 0xf5, 0x97,
  0xf8, 0xff, 0x0d, 0x07, 0xfd, 0xfb, 0xf9, 0x1f, 0x02, 0xd4, 0xff, 0xff,
  0x04, 0x00, 0x00, 0x00, 0x20, 0x00, 0x00, 0x00, 0x0b, 0xf0, 0xff, 0xff,
  0x8a, 0x2a, 0x00, 0x00, 0xc3, 0xfd, 0xff, 0xff, 0xbb, 0xbd, 0xff, 0xff,
  0x34, 0x02, 0x00, 0x00, 0xb2, 0xc6, 0xff, 0xff, 0xf7, 0x01, 0x00, 0x00,
  0x62, 0x00, 0x00, 0x00, 0x2e, 0xd4, 0xff, 0xff, 0x04, 0x00, 0x00, 0x00,
  0x40, 0x00, 0x00, 0x00, 0xe4, 0x05, 0xd8, 0xe6, 0xed, 0x25, 0x81, 0xf6,
  0x17, 0x5d, 0x04, 0x7f, 0x0d, 0xf9, 0xf0, 0xdd, 0x7f, 0xf4, 0xdf, 0xcb,
  0xc4, 0x2d, 0x5c, 0xd5, 0x10, 0x81, 0x21, 0xab, 0x1c, 0xaf, 0x0f, 0x33,
  0x7f, 0x00, 0xc5, 0xf4, 0x13, 0xf9, 0x87, 0xce, 0x03, 0xdd, 0x02, 0x25,
  0x04, 0x81, 0xff, 0x0b, 0x7f, 0xee, 0x6a, 0x08, 0x59, 0xe4, 0xfb, 0x0c,
  0x81, 0x02, 0x98, 0x00, 0x85, 0x0f, 0x22, 0x0c, 0x7a, 0xd4, 0xff, 0xff,
  0x04, 0x00, 0x00, 0x00, 0x20, 0x00, 0x00, 0x00, 0xc6, 0x0d, 0x00, 0x00,
  0xfe, 0xeb, 0xff, 0xff, 0xe2, 0xfd, 0xff, 0xff, 0x96, 0x0f, 0x00, 0x00,
  0x89, 0x08, 0x00, 0x00, 0x59, 0x03, 0x00, 0x00, 0x68, 0xf3, 0xff, 0xff,
  0x2f, 0x0a, 0x00, 0x00, 0xa6, 0xd4, 0xff, 0xff, 0x04, 0x00, 0x00, 0x00,
  0x80, 0x01, 0x00, 0x00, 0x93, 0x91, 0x24, 0x81, 0xc0, 0xf9, 0x03, 0xf2,
  0x81, 0xf1, 0x6e, 0x07, 0xc6, 0x14, 0x06, 0x11, 0x2a, 0xed, 0x17, 0x7f,
  0x2a, 0xdf, 0xfd, 0xe6, 0x90, 0xa8, 0xe3, 0xdc, 0x31, 0x7f, 0xc8, 0xdb,
  0xf4, 0xdd, 0x01, 0x0a, 0xed, 0x0c, 0x81, 0xb3, 0x03, 0xda, 0xf0, 0x00,
  0xf9, 0x0f, 0x81, 0xb8, 0x7f, 0x08, 0x0a, 0xed, 0xb8, 0x12, 0x04, 0xfd,
  0x81, 0xe0, 0xe9, 0xff, 0x4a, 0x11, 0x01, 0x06, 0x13, 0x1e, 0xf3, 0xf0,
  0xe7, 0x81, 0x1e, 0x14, 0x53, 0x1f, 0xf3, 0xfb, 0xe9, 0xf9, 0xff, 0x7f,
  0x6d, 0xe8, 0x95, 0x11, 0xa6, 0xef, 0x25, 0x7f, 0x9c, 0x7f, 0x0e, 0xe3,
  0x6f, 0xda, 0x10, 0x0f, 0x7f, 0xda, 0xa1, 0x03, 0x27, 0xf8, 0xfb, 0xf2,
  0x7f, 0x08, 0x0a, 0xee, 0xf1, 0x21, 0x09, 0xf4, 0x81, 0xa4, 0x59, 0xd9,
  0x4d, 0xf2, 0xc9, 0x81, 0x1d, 0x39, 0x0c, 0xf2, 0xfa, 0x81, 0xeb, 0x04,
  0xf6, 0xb7, 0x0a, 0x03, 0x0f, 0x7f, 0x0a, 0x06, 0x22, 0x81, 0xbe, 0xe9,
  0xdb, 0x61, 0xcc, 0xe4, 0x25, 0xf7, 0xee, 0xf0, 0xea, 0x1c, 0x7f, 0xfc,
  0xfc, 0x18, 0x02, 0x81, 0xf5, 0x20, 0x05, 0xee, 0xad, 0xe5, 0x4a, 0x03,
  0x2b, 0x5f, 0x00, 0x81, 0xe2, 0x05, 0x1d, 0xf4, 0xf2, 0x15, 0x81, 0xb6,
  0x44, 0xf1, 0x12, 0x7f, 0xfd, 0xf2, 0x35, 0x2a, 0x72, 0xf7, 0x81, 0xee,
  0x15, 0xe0, 0x00, 0x13, 0xde, 0x0d, 0x1e, 0x1b, 0x0f, 0x04, 0x81, 0xa6,
  0x7f, 0x0c, 0xaa, 0x02, 0x10, 0xf9, 0x09, 0x17, 0xfd, 0x33, 0xe0, 0x81,
  0xe5, 0x11, 0x00, 0xff, 0x7f, 0x0a, 0x9f, 0xfd, 0xa3, 0x14, 0xfc, 0x5e,
  0x81, 0xe8, 0xe2, 0x0a, 0x3c, 0x13, 0x06, 0x26, 0xf5, 0x8a, 0xf8, 0x81,
  0xec, 0x17, 0xf0, 0xf0, 0x1e, 0x4c, 0x70, 0x1c, 0x3b, 0x9f, 0x7f, 0x0b,
  0xa5, 0xfb, 0x81, 0x38, 0xf5, 0xff, 0x68, 0x72, 0xf9, 0x8a, 0xfe, 0x81,
  0xf3, 0x0c, 0xed, 0xf6, 0x1a, 0x81, 0xf2, 0x92, 0x1e, 0x1e, 0x11, 0xda,
  0xe4, 0xd0, 0x21, 0x9a, 0x20, 0xc6, 0x7f, 0x54, 0x81, 0x0e, 0x29, 0x09,
  0x9b, 0xf3, 0x17, 0x5f, 0x81, 0x2c, 0x6c, 0x00, 0xd7, 0x1d, 0xf4, 0x1a,
  0x7f, 0x0c, 0xf8, 0xfb, 0xb9, 0x18, 0x03, 0x0e, 0xcb, 0x02, 0x4c, 0x43,
  0x43, 0xcd, 0x28, 0x7f, 0x81, 0xfc, 0x54, 0xf9, 0xae, 0x0b, 0xf6, 0x08,
  0xed, 0x21, 0x2d, 0xf4, 0x14, 0xf0, 0x7f, 0x27, 0x7f, 0xee, 0xb5, 0xfb,
  0x30, 0x07, 0x05, 0xfc, 0xf0, 0x81, 0x21, 0xf6, 0x0f, 0x07, 0xfa, 0xee,
  0x16, 0x7f, 0x7c, 0x05, 0x41, 0x9d, 0x5f, 0xf7, 0x05, 0xf7, 0x03, 0x73,
  0x00, 0x81, 0x03, 0xfe, 0x7f, 0xe0, 0x35, 0xf5, 0xb4, 0x6f, 0x07, 0xfc,
  0x0d, 0x76, 0xea, 0x68, 0x08, 0x7f, 0x17, 0x23, 0xfd, 0x2a, 0x0a, 0xea,
  0x26, 0xe2, 0x7f, 0x4a, 0x32, 0xd6, 0xff, 0xff, 0x04, 0x00, 0x00, 0x00,
  0xc0, 0x00, 0x00, 0x00, 0xd1, 0x27, 0x00, 0x00, 0x65, 0x10, 0x00, 0x00,
  0x48, 0x1c, 0x00, 0x00, 0xba, 0x0b, 0x00, 0x00, 0x35, 0x0f, 0x00, 0x00,
  0xc0, 0x0f, 0x00, 0x00, 0x0f, 0xf3, 0xff, 0xff, 0xf4, 0x0e, 0x00, 0x00,
  0x2a, 0x0c, 0x00, 0x00, 0x28, 0xf5, 0xff, 0xff, 0xee, 0xf5, 0xff, 0xff,
  0xf0, 0x08, 0x00, 0x00, 0xef, 0xf6, 0xff, 0xff, 0xb1, 0xef, 0xff, 0xff,
  0x29, 0x1f, 0x00, 0x00, 0x91, 0x09, 0x00, 0x00, 0x5b, 0xf8, 0xff, 0xff,
  0x84, 0x0a, 0x00, 0x00, 0xce, 0xf8, 0xff, 0xff, 0x9f, 0x0b, 0x00, 0x00,
  0x9d, 0x02, 0x00, 0x00, 0xbe, 0x0a, 0x00, 0x00, 0xfd, 0x23, 0x00, 0x00,
  0xe5, 0xfa, 0xff, 0xff, 0x16, 0x00, 0x00, 0x00, 0x54, 0xef, 0xff, 0xff,
  0xf7, 0x0a, 0x00, 0x00, 0x24, 0xf8, 0xff, 0xff, 0x8e, 0x0c, 0x00, 0x00,
  0x16, 0x1b, 0x00, 0x00, 0x09, 0x03, 0x00, 0x00, 0xdd, 0xfe, 0xff, 0xff,
  0xef, 0x1a, 0x00, 0x00, 0x2e, 0x25, 0x00, 0x00, 0x9e, 0x1e, 0x00, 0x00,
  0xae, 0x0e, 0x00, 0x00, 0x72, 0x0e, 0x00, 0x00, 0xdc, 0xef, 0xff, 0xff,
  0xeb, 0xfc, 0xff, 0xff, 0x23, 0x11, 0x00, 0x00, 0x21, 0xff, 0xff, 0xff,
  0x0c, 0xf3, 0xff, 0xff, 0xfa, 0x0d, 0x00, 0x00, 0xdb, 0x04, 0x00, 0x00,
  0xca, 0x00, 0x00, 0x00, 0x8e, 0xe9, 0xff, 0xff, 0x9f, 0xd7, 0xff, 0xff,
  0x7d, 0x0c, 0x00, 0x00, 0xfe, 0xd6, 0xff, 0xff, 0x04, 0x00, 0x00, 0x00,
  0xb0, 0x01, 0x00, 0x00, 0xd2, 0x9c, 0x85, 0x67, 0xaa, 0x02, 0xb5, 0xb4,
  0x2e, 0x4f, 0x5f, 0xda, 0x1d, 0x11, 0xae, 0xc4, 0x75, 0xa5, 0x21, 0xac,
  0xd4, 0x8d, 0xe2, 0xb6, 0x2e, 0x67, 0xfc, 0xc1, 0x14, 0xfd, 0x43, 0x41,
  0x46, 0x42, 0x41, 0x1f, 0x57, 0x7f, 0x01, 0x0a, 0x87, 0xfe, 0x3e, 0x23,
  0xb3, 0xf0, 0xd1, 0xa3, 0x46, 0xf6, 0x1b, 0x4e, 0x81, 0x30, 0xd1, 0x06,
  0x4e, 0x6f, 0x7f, 0x2e, 0x11, 0xc9, 0x91, 0x81, 0x67, 0xd6, 0x60, 0x84,
  0x85, 0x6c, 0x7f, 0x07, 0x7f, 0x7f, 0x2e, 0x97, 0xbd, 0xee, 0x8c, 0x67,
  0x76, 0x7f, 0x65, 0x5a, 0xe9, 0x3f, 0x50, 0xb5, 0xa3, 0xa8, 0x16, 0xc7,
  0xce, 0x3b, 0xbc, 0x7e, 0x60, 0x04, 0x50, 0x4b, 0xad, 0x0c, 0xeb, 0xf9,
  0x07, 0x72, 0xbf, 0xe7, 0xac, 0x07, 0xeb, 0xc9, 0x2c, 0x5b, 0x33, 0xc2,
  0x9e, 0xdb, 0xbc, 0x31, 0x12, 0x37, 0x13, 0xda, 0x13, 0xd9, 0x1a, 0x20,
  0x40, 0x59, 0x16, 0x24, 0xfd, 0x2b, 0x39, 0xfc, 0xcb, 0xf9, 0x0d, 0x08,
  0x06, 0xf9, 0xf7, 0x0c, 0x29, 0x81, 0x7f, 0x7f, 0x5f, 0xb5, 0x81, 0x81,
  0x6d, 0x65, 0x7d, 0xce, 0x1d, 0x07, 0xc0, 0xb4, 0x5d, 0x7f, 0x23, 0x9e,
  0x96, 0x68, 0x21, 0x81, 0x3a, 0x6c, 0x7c, 0x96, 0x0e, 0xa0, 0xa7, 0x3a,
  0x75, 0x0d, 0x63, 0x34, 0x1c, 0x4b, 0x3c, 0x05, 0xfc, 0xf2, 0x7c, 0x4c,
  0x81, 0xf6, 0x8c, 0x79, 0x7f, 0xfd, 0x07, 0x70, 0x7f, 0x81, 0xab, 0x02,
  0x7f, 0x7f, 0x58, 0x30, 0xea, 0x81, 0x81, 0x98, 0x7f, 0x4a, 0x7f, 0x81,
  0x81, 0x81, 0x97, 0x15, 0x6c, 0x7c, 0x7f, 0x81, 0x81, 0x9b, 0x7f, 0x7f,
  0x7f, 0x06, 0x7f, 0x7f, 0xf1, 0x72, 0x7f, 0x81, 0x08, 0x81, 0x6e, 0xa8,
  0x95, 0x7f, 0x83, 0x81, 0x62, 0x00, 0x87, 0x65, 0x53, 0xc4, 0xf3, 0xef,
  0x19, 0x4f, 0xbc, 0xf2, 0x81, 0x04, 0xca, 0xfa, 0x3c, 0xa2, 0x45, 0xc5,
  0x9f, 0xfd, 0x4f, 0x28, 0x1b, 0x31, 0xf4, 0xb7, 0xf4, 0x9d, 0xd8, 0x18,
  0x26, 0x08, 0x1e, 0x2c, 0x02, 0x17, 0x68, 0x07, 0xe8, 0xff, 0x2d, 0xef,
  0xc9, 0x02, 0xce, 0x1b, 0x46, 0xb4, 0x25, 0x1f, 0xfc, 0x3f, 0xbc, 0x9f,
  0x2d, 0x04, 0xf0, 0x2d, 0x0c, 0x05, 0xfc, 0xde, 0xfa, 0xce, 0x07, 0xf3,
  0xe4, 0xfc, 0x20, 0xbf, 0x1f, 0x2c, 0x51, 0x07, 0x17, 0xae, 0x11, 0x0c,
  0x41, 0xb8, 0x3b, 0x12, 0x81, 0xee, 0x04, 0x0b, 0x25, 0xf3, 0x7e, 0x81,
  0xb5, 0xea, 0x9f, 0xf8, 0x29, 0x0e, 0x19, 0x1b, 0x03, 0x5b, 0xd0, 0xf7,
  0x21, 0x46, 0xf3, 0x81, 0x03, 0xc3, 0x1f, 0xea, 0x05, 0xf7, 0x2e, 0xb7,
  0xf0, 0xe6, 0xfc, 0x11, 0x3a, 0x4a, 0x5d, 0xb3, 0xc0, 0x81, 0xdf, 0x0a,
  0x3d, 0xba, 0x39, 0x1e, 0x0f, 0x13, 0x15, 0xcb, 0x7f, 0xc5, 0x7f, 0x52,
  0x8a, 0x5d, 0x81, 0x1c, 0xe8, 0x00, 0x1a, 0x20, 0xe2, 0x25, 0xfb, 0xf5,
  0x19, 0x50, 0x88, 0x1c, 0xc4, 0x05, 0xf5, 0x03, 0xfb, 0x1a, 0x0c, 0xf5,
  0xaf, 0x06, 0x23, 0x09, 0xfa, 0x37, 0x21, 0xfc, 0xef, 0xd5, 0x12, 0xed,
  0xf5, 0xdc, 0x0a, 0x0e, 0x0b, 0xdc, 0xf7, 0x12, 0x3d, 0x09, 0xfd, 0xef,
  0xf0, 0x0b, 0xc8, 0x01, 0xba, 0xd8, 0xff, 0xff, 0x04, 0x00, 0x00, 0x00,
  0xc0, 0x00, 0x00, 0x00, 0x05, 0x01, 0x00, 0x00, 0x67, 0x1e, 0x00, 0x00,
  0xb5, 0xed, 0xff, 0xff, 0x80, 0x18, 0x00, 0x00, 0x67, 0x03, 0x00, 0x00,
  0xf2, 0x01, 0x00, 0x00, 0xa8, 0x24, 0x00, 0x00, 0x49, 0x24, 0x00, 0x00,
  0x50, 0x04, 0x00, 0x00, 0xa4, 0xdf, 0xff, 0xff, 0x68, 0x03, 0x00, 0x00,
  0x6c, 0x04, 0x00, 0x00, 0x74, 0x14, 0x00, 0x00, 0xd8, 0x0d, 0x00, 0x00,
  0x68, 0x46, 0x00, 0x00, 0x15, 0x41, 0x00, 0x00, 0x36, 0x0a, 0x00, 0x00,
  0x01, 0xfa, 0xff, 0xff, 0x17, 0x02, 0x00, 0x00, 0xdc, 0x1b, 0x00, 0x00,
  0xba, 0x65, 0x00, 0x00, 0x94, 0x0b, 0x00, 0x00, 0x49, 0xf0, 0xff, 0xff,
  0xc9, 0x07, 0x00, 0x00, 0x24, 0x1e, 0x00, 0x00, 0x09, 0x07, 0x00, 0x00,
  0xa2, 0x16, 0x00, 0x00, 0x4a, 0x46, 0x00, 0x00, 0x06, 0x16, 0x00, 0x00,
  0xd6, 0x27, 0x00, 0x00, 0x02, 0x01, 0x00, 0x00, 0x6a, 0x07, 0x00, 0x00,
  0x94, 0xf5, 0xff, 0xff, 0xc4, 0xe8, 0xff, 0xff, 0x43, 0xe6, 0xff, 0xff,
  0x06, 0x05, 0x00, 0x00, 0x5c, 0x05, 0x00, 0x00, 0x57, 0x02, 0x00, 0x00,
  0x47, 0x02, 0x00, 0x00, 0x81, 0x0d, 0x00, 0x00, 0x67, 0x15, 0x00, 0x00,
  0x01, 0x14, 0x00, 0x00, 0x61, 0xde, 0xff, 0xff, 0xf1, 0x0a, 0x00, 0x00,
  0x51, 0x13, 0x00, 0x00, 0x4f, 0x00, 0x00, 0x00, 0x50, 0x3c, 0x00, 0x00,
  0xd3, 0xf2, 0xff, 0xff, 0x86, 0xd9, 0xff, 0xff, 0x04, 0x00, 0x00, 0x00,
  0x80, 0x01, 0x00, 0x00, 0x37, 0x66, 0xe0, 0x44, 0x03, 0xf9, 0xe9, 0x04,
  0x44, 0xb3, 0xfd, 0xed, 0x0e, 0x03, 0xd4, 0xc6, 0xfe, 0xfb, 0x22, 0x0a,
  0xba, 0xe0, 0xdf, 0x06, 0x13, 0x0d, 0x20, 0x07, 0x18, 0x07, 0xe9, 0x13,
  0xc8, 0x09, 0x7c, 0x81, 0xf2, 0x0f, 0xf8, 0x77, 0xde, 0x0f, 0x17, 0xff,
  0xe3, 0x2b, 0x25, 0xd0, 0x01, 0xd2, 0x26, 0x2c, 0xf2, 0xf6, 0xf1, 0xec,
  0x32, 0xd0, 0x5e, 0x21, 0x1b, 0x0e, 0xcf, 0xad, 0x7f, 0x33, 0x15, 0x12,
  0xad, 0x2d, 0x29, 0xdb, 0xc6, 0xa3, 0xde, 0xcc, 0xf7, 0xc2, 0x33, 0xd8,
  0xf0, 0xe7, 0xd4, 0x0b, 0xf8, 0xeb, 0x55, 0xc8, 0xf0, 0x1b, 0xb5, 0x2e,
  0x43, 0x3d, 0x07, 0x34, 0x4d, 0xf0, 0xf0, 0xe4, 0x70, 0x6e, 0x30, 0x5a,
  0xec, 0xf1, 0xff, 0xef, 0xea, 0x25, 0x36, 0x14, 0xdf, 0xe3, 0x3f, 0xaf,
  0xd6, 0xdd, 0xdc, 0x4f, 0xaf, 0xb5, 0x7f, 0x14, 0x4e, 0xc5, 0xc7, 0x1a,
  0x88, 0x5a, 0x6c, 0x1a, 0xf5, 0x0a, 0x03, 0x14, 0x0e, 0x3d, 0x15, 0xc3,
  0xda, 0x1f, 0x33, 0xe5, 0x4f, 0xd9, 0x17, 0xf4, 0x6f, 0x7f, 0x1a, 0x29,
  0xd5, 0xec, 0x24, 0x2b, 0x83, 0x2f, 0x45, 0x1b, 0x12, 0x13, 0x4e, 0x8f,
  0xa1, 0x11, 0x19, 0x45, 0x04, 0xce, 0x35, 0x17, 0x26, 0xcb, 0xff, 0xf6,
  0x8a, 0x45, 0xc8, 0x83, 0x24, 0xda, 0x3a, 0xc7, 0x42, 0x8e, 0x97, 0xf1,
  0xb8, 0x25, 0xe0, 0x2b, 0x28, 0x35, 0xe0, 0xd4, 0xee, 0xfd, 0xec, 0xf3,
  0x06, 0xff, 0xfa, 0xf0, 0xe0, 0xeb, 0x41, 0x37, 0xd8, 0xe1, 0xda, 0x2a,
  0x25, 0xf5, 0xef, 0xfd, 0xd4, 0xda, 0xff, 0x30, 0xf2, 0x08, 0xec, 0x17,
  0xdf, 0xea, 0x1b, 0x81, 0xef, 0x19, 0x0b, 0x30, 0x0f, 0xf2, 0xee, 0xed,
  0x25, 0x01, 0x56, 0xea, 0x37, 0x2f, 0xbb, 0x2c, 0x05, 0x05, 0xfb, 0x1b,
  0xad, 0xc4, 0xc4, 0xe2, 0x33, 0x0e, 0x29, 0x1d, 0x1f, 0xcb, 0x29, 0x7f,
  0xb6, 0xd1, 0xd0, 0x25, 0x0e, 0xec, 0xd5, 0x3f, 0x1a, 0x23, 0xcf, 0x0e,
  0xed, 0xfa, 0xbc, 0x01, 0xf7, 0x12, 0xe5, 0x3a, 0x0d, 0x54, 0xee, 0xda,
  0x7f, 0x1b, 0x0a, 0xc5, 0xe4, 0xb4, 0x11, 0xcb, 0xd9, 0xd8, 0xb4, 0xad,
  0xd8, 0xc4, 0x95, 0x2c, 0xcc, 0xd2, 0x66, 0x59, 0x81, 0x0c, 0x16, 0xec,
  0x13, 0x38, 0x48, 0x09, 0xea, 0xf7, 0xb9, 0x4d, 0xac, 0xd9, 0x2c, 0x53,
  0x15, 0xc9, 0x5c, 0x22, 0x1c, 0x31, 0xef, 0xad, 0xea, 0xc5, 0xdf, 0x10,
  0xd9, 0xea, 0xf2, 0x3b, 0x49, 0x15, 0xf7, 0x2e, 0x0a, 0x0d, 0x0b, 0xf8,
  0x47, 0x00, 0xf6, 0xf4, 0x34, 0x02, 0xf3, 0xf0, 0xd4, 0xf6, 0xe0, 0x00,
  0x02, 0xe2, 0xe6, 0xe7, 0x4d, 0x81, 0x0d, 0x02, 0x01, 0x58, 0xf3, 0x09,
  0xbe, 0x19, 0xce, 0xd5, 0xf0, 0x14, 0x24, 0x19, 0x1e, 0x37, 0xec, 0xf4,
  0xd5, 0x25, 0x2a, 0xe5, 0x12, 0xdb, 0xff, 0xff, 0x04, 0x00, 0x00, 0x00,
  0x20, 0x00, 0x00, 0x00, 0x68, 0xcf, 0xff, 0xff, 0xc1, 0x0f, 0x00, 0x00,
  0x19, 0xb1, 0xff, 0xff, 0xdf, 0x07, 0x00, 0x00, 0x7f, 0x0b, 0x00, 0x00,
  0xd0, 0xfb, 0xff, 0xff, 0x01, 0x2d, 0x00, 0x00, 0x28, 0xff, 0xff, 0xff,
  0x3e, 0xdb, 0xff, 0xff, 0x04, 0x00, 0x00, 0x00, 0x80, 0x01, 0x00, 0x00,
  0xe9, 0x3c, 0xf6, 0x81, 0x88, 0x04, 0x49, 0x61, 0x59, 0xfa, 0xf3, 0x0c,
  0xbf, 0x27, 0x7f, 0x03, 0xf9, 0x56, 0xd4, 0xf1, 0xe7, 0x50, 0xe0, 0x81,
  0x47, 0xc8, 0xb6, 0x5d, 0x81, 0xf6, 0xf4, 0xea, 0x31, 0xc6, 0x27, 0xe4,
  0x81, 0x06, 0x41, 0x0b, 0xf8, 0x2f, 0xf3, 0xa5, 0x81, 0x03, 0xe4, 0x07,
  0x27, 0xdb, 0x0e, 0x28, 0x73, 0xf1, 0xff, 0x81, 0x0c, 0x1e, 0x0f, 0x7f,
  0x18, 0xf9, 0xfe, 0x12, 0x06, 0x20, 0xfe, 0xba, 0x3a, 0x7f, 0x0d, 0xe3,
  0x75, 0x21, 0xe7, 0x14, 0xcf, 0xe5, 0x7f, 0x3b, 0x07, 0x44, 0xb6, 0xe0,
  0x06, 0x7f, 0x55, 0xc6, 0xcc, 0xda, 0x81, 0x57, 0xd2, 0x27, 0xe1, 0x66,
  0x8b, 0xa9, 0x3d, 0x3b, 0x12, 0x81, 0xc2, 0x0d, 0x2e, 0x1b, 0x24, 0x40,
  0xc2, 0x7f, 0x16, 0xcc, 0x15, 0x81, 0xfe, 0x02, 0xde, 0xa3, 0x96, 0x37,
  0xb5, 0x2b, 0xff, 0xfe, 0x7f, 0xf5, 0x84, 0xb9, 0x69, 0x50, 0x97, 0x81,
  0x3a, 0x7d, 0x7d, 0x1d, 0x9d, 0x65, 0x81, 0x32, 0x07, 0xe8, 0x19, 0x92,
  0x1a, 0x0f, 0xa5, 0x7f, 0xea, 0xdc, 0xdb, 0xcb, 0x7f, 0x07, 0x13, 0x17,
  0xfd, 0xfb, 0x7d, 0x33, 0x3a, 0xc0, 0x89, 0x7f, 0x5f, 0xe7, 0xc4, 0x9f,
  0x18, 0x3a, 0x7c, 0x93, 0x1d, 0xe8, 0x2b, 0x81, 0xca, 0xeb, 0x81, 0x30,
  0xec, 0x3c, 0x1c, 0x55, 0x5b, 0x29, 0x17, 0x0f, 0x81, 0x76, 0x3c, 0xdb,
  0xf2, 0xfe, 0x81, 0x49, 0xe3, 0x2f, 0x17, 0x54, 0x2d, 0xe7, 0x99, 0x7f,
  0x4e, 0x15, 0xe9, 0xe4, 0xa2, 0x28, 0x7f, 0xa0, 0xee, 0x0e, 0x55, 0xd5,
  0xc1, 0x4b, 0x7f, 0x07, 0x05, 0xfa, 0x44, 0x10, 0xdb, 0x81, 0x42, 0x84,
  0xf4, 0xf8, 0x14, 0xd7, 0xb4, 0xb7, 0xf1, 0x4d, 0x15, 0x81, 0xde, 0x37,
  0x92, 0x18, 0x7f, 0xee, 0x27, 0x0e, 0x3a, 0x14, 0xbf, 0x39, 0x57, 0x81,
  0xd4, 0x15, 0x26, 0x45, 0xa1, 0x7f, 0x4c, 0x8f, 0x05, 0x18, 0x09, 0x7b,
  0x06, 0x71, 0xd2, 0x40, 0x0e, 0x0b, 0x81, 0xef, 0x48, 0x00, 0x7f, 0xa6,
  0xc6, 0xa4, 0x1a, 0xdb, 0x62, 0x0c, 0x32, 0x7f, 0x45, 0xac, 0x20, 0x84,
  0x0e, 0x2d, 0x7f, 0x9a, 0x1b, 0xe3, 0x0b, 0xa3, 0xc8, 0xc2, 0x5f, 0x47,
  0x06, 0x81, 0x62, 0xf7, 0x2f, 0x0a, 0x63, 0x21, 0xed, 0xc2, 0x7f, 0x27,
  0x40, 0x9c, 0x02, 0x14, 0x81, 0xf6, 0x7f, 0x29, 0xc4, 0x11, 0x8d, 0x71,
  0xda, 0x1d, 0xb9, 0x7f, 0xad, 0xe7, 0xd8, 0xfc, 0x7f, 0x11, 0x90, 0x1c,
  0xad, 0x31, 0xe0, 0xea, 0x7f, 0x1f, 0xa0, 0xd4, 0x7f, 0x52, 0xe8, 0x63,
  0x05, 0xa4, 0x27, 0x25, 0xed, 0xfb, 0x2f, 0x09, 0x3e, 0x81, 0x17, 0xee,
  0xf9, 0xad, 0x7f, 0x52, 0xe3, 0xec, 0x97, 0x0a, 0x2c, 0x81, 0x97, 0x41,
  0xc0, 0x15, 0xf1, 0xf1, 0x81, 0xc4, 0x3f, 0x01, 0x60, 0x03, 0x8c, 0xd3,
  0xca, 0xdc, 0xff, 0xff, 0x04, 0x00, 0x00, 0x00, 0xc0, 0x00, 0x00, 0x00,
  0x3a, 0x16, 0x00, 0x00, 0x74, 0x08, 0x00, 0x00, 0x9c, 0x4c, 0x00, 0x00,
  0x22, 0xf9, 0xff, 0xff, 0xdc, 0xf8, 0xff, 0xff, 0x65, 0x1e, 0x00, 0x00,
  0xd1, 0xfc, 0xff, 0xff, 0xc1, 0x05, 0x00, 0x00, 0x3c, 0x0b, 0x00, 0x00,
  0x1b, 0xff, 0xff, 0xff, 0xb3, 0x25, 0x00, 0x00, 0x8a, 0x03, 0x00, 0x00,
  0x81, 0x06, 0x00, 0x00, 0xaf, 0x10, 0x00, 0x00, 0x21, 0x0c, 0x00, 0x00,
  0xb4, 0x0d, 0x00, 0x00, 0x46, 0x13, 0x00, 0x00, 0x2d, 0x0a, 0x00, 0x00,
  0xa9, 0xfd, 0xff, 0xff, 0x2d, 0x14, 0x00, 0x00, 0x16, 0x09, 0x00, 0x00,
  0xc7, 0x00, 0x00, 0x00, 0x1d, 0x06, 0x00, 0x00, 0x6d, 0x2e, 0x00, 0x00,
  0xa6, 0x7e, 0x00, 0x00, 0xa5, 0x0f, 0x00, 0x00, 0x2a, 0x13, 0x00, 0x00,
  0x25, 0xfc, 0xff, 0xff, 0x1b, 0xff, 0xff, 0xff, 0xd0, 0x1a, 0x00, 0x00,
  0x5c, 0x11, 0x00, 0x00, 0x4b, 0x31, 0x00, 0x00, 0x09, 0x30, 0x00, 0x00,
  0x8a, 0x16, 0x00, 0x00, 0xe6, 0x2c, 0x00, 0x00, 0xc4, 0xfa, 0xff, 0xff,
  0x17, 0x02, 0x00, 0x00, 0x64, 0x10, 0x00, 0x00, 0x24, 0x52, 0x00, 0x00,
  0x22, 0x3f, 0x00, 0x00, 0xef, 0x01, 0x00, 0x00, 0xe8, 0x32, 0x00, 0x00,
  0x1f, 0x55, 0x00, 0x00, 0x7e, 0x16, 0x00, 0x00, 0x03, 0x25, 0x00, 0x00,
  0x5f, 0x09, 0x00, 0x00, 0xc7, 0x0a, 0x00, 0x00, 0x13, 0x04, 0x00, 0x00,
  0x96, 0xdd, 0xff, 0xff, 0x04, 0x00, 0x00, 0x00, 0xb0, 0x01, 0x00, 0x00,
  0x08, 0xc8, 0x2b, 0xbd, 0x7f, 0x05, 0xf4, 0xef, 0xe2, 0x25, 0xf1, 0x08,
  0x37, 0xfb, 0x7f, 0xe0, 0x0d, 0xdf, 0x07, 0xf5, 0xd9, 0x02, 0xb6, 0x1f,
  0x81, 0x28, 0xf9, 0xdf, 0xfd, 0x07, 0xed, 0x03, 0xe7, 0x02, 0x1f, 0x04,
  0x59, 0x5b, 0x30, 0xf2, 0x36, 0x04, 0xf1, 0xf6, 0x9e, 0xf0, 0xda, 0xd2,
  0x0f, 0x90, 0xb8, 0xab, 0xba, 0x02, 0x12, 0x0f, 0x12, 0x03, 0x2a, 0x7f,
  0xeb, 0x1c, 0xac, 0x7f, 0xfe, 0xcf, 0x4c, 0xcb, 0xd2, 0x81, 0x9f, 0x42,
  0xb6, 0xb8, 0x13, 0x7f, 0x13, 0x18, 0x61, 0x0c, 0x81, 0x81, 0xda, 0x3d,
  0x7f, 0xa3, 0x7f, 0x04, 0x46, 0xeb, 0xeb, 0xf5, 0xc9, 0xf4, 0x4f, 0xf4,
  0x16, 0xec, 0xed, 0x7f, 0x26, 0x0c, 0x87, 0xf4, 0xe4, 0xd3, 0xe0, 0xf0,
  0x2a, 0xf0, 0xa9, 0xd8, 0x21, 0xfb, 0x20, 0xf0, 0x22, 0x13, 0xd3, 0x12,
  0xdf, 0xd2, 0xf4, 0x17, 0x08, 0x0e, 0xa0, 0xf9, 0xfc, 0x58, 0x19, 0x31,
  0x0c, 0x7f, 0x9a, 0xfc, 0x28, 0xf5, 0xf8, 0x19, 0x81, 0x08, 0xaf, 0x25,
  0xa4, 0xbb, 0x7f, 0xf4, 0xe5, 0xe7, 0x51, 0x1e, 0x17, 0x69, 0x08, 0x14,
  0x2a, 0xfd, 0x71, 0x21, 0x1e, 0x81, 0x4b, 0x2e, 0x33, 0x01, 0x43, 0xde,
  0xe6, 0xef, 0x17, 0xb2, 0x24, 0x25, 0x1f, 0x42, 0x27, 0x9f, 0x07, 0x7f,
  0x00, 0x1e, 0xdc, 0x8d, 0x0d, 0x52, 0xef, 0x98, 0x1e, 0x98, 0xc7, 0x11,
  0x7f, 0xb6, 0xb0, 0x90, 0x1c, 0x81, 0x7f, 0x7f, 0x7f, 0x1e, 0x7f, 0xe1,
  0x81, 0x03, 0xd0, 0xd9, 0x7f, 0xc2, 0x7f, 0x7f, 0x7f, 0x6b, 0x7f, 0x81,
  0x03, 0xef, 0x6f, 0xc5, 0x7f, 0x6a, 0x81, 0x7f, 0x1a, 0x99, 0x7f, 0x8b,
  0xb6, 0x74, 0xa3, 0x7c, 0x81, 0x81, 0x7f, 0x81, 0x5d, 0x81, 0x7f, 0x8b,
  0xfe, 0x8a, 0xff, 0x7b, 0xe7, 0xf9, 0xb4, 0x09, 0xf5, 0x81, 0xe3, 0x2f,
  0x49, 0xfc, 0xb8, 0x2e, 0x16, 0xdf, 0x05, 0x0a, 0x18, 0xee, 0x29, 0xea,
  0xf3, 0x18, 0x81, 0x2d, 0xcf, 0x08, 0x56, 0x0a, 0xee, 0xcb, 0xf1, 0xd6,
  0x32, 0x0a, 0x79, 0x08, 0x1e, 0x30, 0xd7, 0xfa, 0x2d, 0xef, 0xc2, 0x7f,
  0x04, 0x7f, 0x21, 0xc7, 0x6e, 0x19, 0xed, 0xf5, 0xd5, 0x16, 0xf7, 0x01,
  0x39, 0x0d, 0x6a, 0x08, 0xf9, 0xe5, 0xdb, 0xc6, 0xe4, 0x19, 0x01, 0x09,
  0xdf, 0xf4, 0x18, 0xe4, 0xdf, 0x91, 0xee, 0x05, 0x01, 0x46, 0xed, 0x20,
  0xc9, 0x2e, 0x10, 0x5f, 0xf2, 0x13, 0xff, 0x0a, 0x18, 0x04, 0xf4, 0xe0,
  0x00, 0x60, 0xd3, 0x1d, 0x51, 0xe9, 0x10, 0x30, 0x18, 0x15, 0x15, 0xe6,
  0x28, 0x7f, 0xbc, 0xb7, 0x09, 0xdb, 0x3d, 0xa2, 0xd7, 0x74, 0xfd, 0x21,
  0x3f, 0x7f, 0x07, 0x5b, 0xcd, 0x81, 0xfc, 0x02, 0x54, 0xc3, 0xaf, 0xfb,
  0xc3, 0xb1, 0xe4, 0x81, 0x35, 0xee, 0xcc, 0x55, 0x32, 0x1b, 0x12, 0x16,
  0x13, 0x7d, 0xee, 0x58, 0x29, 0x0a, 0xb6, 0x06, 0xe0, 0xf6, 0xfc, 0xfd,
  0x41, 0x04, 0xb4, 0xff, 0xfb, 0xf6, 0xce, 0xe0, 0x07, 0x14, 0xfe, 0xf6,
  0xd2, 0x2d, 0xc7, 0x03, 0x20, 0xaa, 0x20, 0xff, 0x04, 0x5e, 0x04, 0xed,
  0xd8, 0x6a, 0x0f, 0xfd, 0xe6, 0xfc, 0x04, 0xf0, 0x0e, 0xfd, 0x03, 0x2b,
  0x52, 0xdf, 0xff, 0xff, 0x04, 0x00, 0x00, 0x00, 0xc0, 0x00, 0x00, 0x00,
  0x67, 0xf4, 0xff, 0xff, 0xa4, 0x0a, 0x00, 0x00, 0x1a, 0x05, 0x00, 0x00,
  0x17, 0x00, 0x00, 0x00, 0xe4, 0xff, 0xff, 0xff, 0xa7, 0x19, 0x00, 0x00,
  0x70, 0x04, 0x00, 0x00, 0xf8, 0xec, 0xff, 0xff, 0xf3, 0xf0, 0xff, 0xff,
  0xe9, 0xf8, 0xff, 0xff, 0x33, 0xec, 0xff, 0xff, 0x0c, 0xfc, 0xff, 0xff,
  0x27, 0xf2, 0xff, 0xff, 0x57, 0xf4, 0xff, 0xff, 0xe6, 0xfd, 0xff, 0xff,
  0x9b, 0xfb, 0xff, 0xff, 0x70, 0xd6, 0xff, 0xff, 0x72, 0x3f, 0x00, 0x00,
  0x0b, 0xf2, 0xff, 0xff, 0x8b, 0x02, 0x00, 0x00, 0x86, 0xf8, 0xff, 0xff,
  0xa1, 0xf5, 0xff, 0xff, 0xff, 0xfc, 0xff, 0xff, 0x12, 0x04, 0x00, 0x00,
  0x5d, 0x47, 0x00, 0x00, 0xb0, 0xf7, 0xff, 0xff, 0x8d, 0x01, 0x00, 0x00,
  0x90, 0xfe, 0xff, 0xff, 0x2c, 0xfb, 0xff, 0xff, 0x2b, 0x0c, 0x00, 0x00,
  0xda, 0x01, 0x00, 0x00, 0x29, 0xdd, 0xff, 0xff, 0x15, 0x02, 0x00, 0x00,
  0xa4, 0x1e, 0x00, 0x00, 0xa9, 0xfa, 0xff, 0xff, 0xa4, 0x20, 0x00, 0x00,
  0x9b, 0x03, 0x00, 0x00, 0x05, 0xec, 0xff, 0xff, 0xb8, 0xf4, 0xff, 0xff,
  0xfe, 0x03, 0x00, 0x00, 0xd5, 0xf1, 0xff, 0xff, 0x06, 0x02, 0x00, 0x00,
  0xdb, 0x0a, 0x00, 0x00, 0x99, 0x1b, 0x00, 0x00, 0x5b, 0x04, 0x00, 0x00,
  0xe4, 0x1e, 0x00, 0x00, 0x17, 0x00, 0x00, 0x00, 0xda, 0xf4, 0xff, 0xff,
  0x1e, 0xe0, 0xff, 0xff, 0x04, 0x00, 0x00, 0x00, 0x80, 0x01, 0x00, 0x00,
  0x2e, 0xce, 0x64, 0x31, 0x19, 0xd2, 0x15, 0x0c, 0xfb, 0x37, 0xe4, 0x0e,
  0xd5, 0xad, 0x27, 0xff, 0x98, 0x3d, 0xe1, 0x43, 0xd1, 0x4a, 0xf9, 0xeb,
  0xfa, 0xd8, 0x3c, 0xef, 0xe5, 0x0f, 0xde, 0x6a, 0xb7, 0xfb, 0xd2, 0xb1,
  0xb6, 0xd8, 0xdb, 0xec, 0x00, 0x3d, 0x81, 0x13, 0x46, 0x1c, 0x1f, 0x33,
  0xd9, 0xdb, 0x3d, 0xf2, 0xd7, 0x1b, 0xeb, 0xe2, 0x29, 0xec, 0xfc, 0xdb,
  0xec, 0x0c, 0x04, 0x1f, 0xfd, 0x1d, 0x04, 0xfc, 0xc7, 0xf1, 0xaf, 0xe3,
  0x21, 0xd6, 0xdb, 0xf3, 0x0b, 0xbf, 0xf5, 0x81, 0xf8, 0xc6, 0xc1, 0xbf,
  0xcb, 0xab, 0xea, 0x18, 0x2f, 0xf4, 0x55, 0x98, 0xd7, 0xf0, 0xf6, 0xfb,
  0xc7, 0x54, 0x03, 0x1f, 0x06, 0x16, 0x1e, 0xe1, 0x46, 0xd9, 0x4c, 0x50,
  0x5e, 0x10, 0x13, 0xd4, 0x62, 0x04, 0x04, 0x25, 0xf2, 0x10, 0xff, 0x7f,
  0x95, 0xde, 0x09, 0xf0, 0xf5, 0x54, 0xf0, 0x9a, 0xe3, 0x05, 0xfc, 0xb4,
  0xdd, 0x0a, 0xd7, 0xe2, 0x52, 0xac, 0x1a, 0xee, 0x21, 0x8a, 0x0a, 0xf6,
  0x40, 0xe8, 0xac, 0x26, 0x51, 0xb6, 0x13, 0x8e, 0xd0, 0xf9, 0xc3, 0xa5,
  0xdf, 0x7f, 0xf9, 0x14, 0xd7, 0xf9, 0xc1, 0xd5, 0x28, 0x5f, 0xe3, 0xcd,
  0x7e, 0x33, 0x4b, 0xc2, 0x1b, 0xaa, 0x2c, 0xbb, 0x3d, 0x49, 0x74, 0xb0,
  0xcc, 0x18, 0xe4, 0x2b, 0x0f, 0x63, 0xaf, 0x15, 0x01, 0x12, 0x19, 0x1a,
  0xd8, 0x1f, 0xd4, 0x4a, 0x5c, 0xe5, 0x29, 0xd6, 0xd6, 0xf7, 0xc5, 0x24,
  0xc6, 0xf3, 0xfc, 0xd3, 0x12, 0x45, 0xe6, 0xda, 0xdf, 0x33, 0xc0, 0xbb,
  0x23, 0xfb, 0x28, 0xeb, 0x23, 0xdb, 0xdc, 0x41, 0x06, 0x4b, 0xbc, 0xba,
  0xbb, 0xbc, 0xe1, 0x04, 0x45, 0xd5, 0x7f, 0x17, 0x02, 0x50, 0xe0, 0xcf,
  0x49, 0x03, 0x53, 0xf0, 0xf4, 0x06, 0x2c, 0x21, 0x7f, 0xf9, 0x43, 0x08,
  0x44, 0x39, 0x1e, 0xc1, 0xf8, 0x1e, 0x21, 0xd2, 0xc4, 0xc2, 0x14, 0x1d,
  0x18, 0x01, 0x10, 0x28, 0xd5, 0xe6, 0x03, 0xf8, 0xe4, 0x28, 0xe4, 0x35,
  0x22, 0xfc, 0xde, 0xe2, 0xff, 0x46, 0x26, 0x33, 0xf1, 0xfd, 0x45, 0x0b,
  0xf5, 0xc5, 0xff, 0xff, 0x1e, 0x03, 0xfb, 0x00, 0xd2, 0xeb, 0x5a, 0x29,
  0x6f, 0x3c, 0xeb, 0x2b, 0x62, 0x81, 0xef, 0x01, 0xfc, 0xdc, 0xa0, 0x17,
  0xaa, 0x49, 0xcf, 0xfb, 0xfa, 0xd2, 0x4e, 0xc7, 0x4b, 0x14, 0xba, 0xeb,
  0xd9, 0x0e, 0x32, 0x03, 0x40, 0xb2, 0xfa, 0xc5, 0x8e, 0x2e, 0xc0, 0x15,
  0xea, 0xea, 0xc3, 0xed, 0x1c, 0x6b, 0xfe, 0xf5, 0xf6, 0xd6, 0x81, 0x9e,
  0x2a, 0x31, 0xc4, 0xd6, 0xcf, 0x0d, 0x70, 0x12, 0xf1, 0xaf, 0x34, 0xff,
  0x6b, 0xda, 0xc4, 0x51, 0xde, 0xf2, 0xf3, 0xa4, 0xd9, 0x42, 0x35, 0x70,
  0x66, 0xcb, 0xee, 0xd3, 0xda, 0xf8, 0x2d, 0xde, 0xfb, 0xe4, 0x0a, 0xce,
  0xaa, 0xe1, 0xff, 0xff, 0x04, 0x00, 0x00, 0x00, 0x20, 0x00, 0x00, 0x00,
  0xa8, 0x26, 0x00, 0x00, 0x9c, 0x3c, 0x00, 0x00, 0x09, 0x1a, 0x00, 0x00,
  0xfd, 0x08, 0x00, 0x00, 0x41, 0xff, 0xff, 0xff, 0x3b, 0xcb, 0xff, 0xff,
  0x28, 0x21, 0x00, 0x00, 0xb3, 0xe6, 0xff, 0xff, 0xd6, 0xe1, 0xff, 0xff,
  0x04, 0x00, 0x00, 0x00, 0x80, 0x01, 0x00, 0x00, 0x27, 0x27, 0xbf, 0x20,
  0xd2, 0x2a, 0x81, 0x16, 0xfb, 0xb9, 0x81, 0xee, 0x04, 0xe3, 0x79, 0x83,
  0x89, 0xd6, 0xc2, 0xce, 0xe4, 0x33, 0x81, 0xf5, 0xc7, 0xd7, 0x1a, 0xfc,
  0xf2, 0x81, 0x82, 0xe9, 0xd2, 0x81, 0xd9, 0x0f, 0x32, 0x12, 0xdb, 0xe2,
  0x4e, 0xe2, 0x57, 0x23, 0x81, 0x3c, 0xb4, 0x97, 0x2f, 0x81, 0xbb, 0xe2,
  0xf7, 0x53, 0xd9, 0x8e, 0xef, 0xab, 0xc7, 0xc9, 0x4d, 0x81, 0xfc, 0x16,
  0x1b, 0x2b, 0x1f, 0x2c, 0x1f, 0xcc, 0xfa, 0x7f, 0xea, 0xc9, 0xc1, 0x12,
  0x3a, 0xf3, 0x7f, 0xe4, 0xd7, 0x05, 0x82, 0x1d, 0x0f, 0x17, 0x79, 0x81,
  0x00, 0xd8, 0xce, 0x0a, 0x81, 0x11, 0x1b, 0x35, 0x6a, 0x4e, 0xe1, 0x1d,
  0xbb, 0x7f, 0x31, 0xf4, 0xd0, 0x00, 0x18, 0xed, 0x32, 0x81, 0x08, 0x3e,
  0xac, 0xd8, 0x07, 0x1f, 0x19, 0x3b, 0xa6, 0x81, 0x2b, 0x52, 0x32, 0xf3,
  0x94, 0x21, 0x7f, 0xd2, 0xf7, 0xc9, 0x12, 0x39, 0xf4, 0xab, 0x0b, 0x81,
  0xbb, 0x7f, 0x14, 0xf4, 0xce, 0xd5, 0xaf, 0xbc, 0x4c, 0x70, 0xb0, 0x81,
  0x70, 0x59, 0x9c, 0x98, 0xef, 0x50, 0xf5, 0x0e, 0x81, 0x08, 0xaa, 0x96,
  0x81, 0xfa, 0x09, 0x0a, 0x10, 0x0f, 0x65, 0x2e, 0xe4, 0x0a, 0x3a, 0x03,
  0xa8, 0xa0, 0x81, 0x27, 0xf9, 0xde, 0xd1, 0xff, 0x81, 0x08, 0x02, 0x3c,
  0x3d, 0x0c, 0xe6, 0x10, 0x7f, 0x43, 0xae, 0x5e, 0x6b, 0x0a, 0xd8, 0x1b,
  0x81, 0x02, 0x13, 0xfd, 0x33, 0xd2, 0x43, 0x6d, 0xcc, 0x81, 0x24, 0x6d,
  0x26, 0x7f, 0x08, 0x50, 0x4e, 0xe9, 0x0f, 0xef, 0x81, 0x78, 0x25, 0xf1,
  0x70, 0xbc, 0x02, 0x6b, 0xb3, 0xb2, 0xc6, 0xde, 0x4d, 0x81, 0x11, 0xf7,
  0xd5, 0xdd, 0x36, 0x36, 0x7f, 0x84, 0xaa, 0x56, 0x74, 0x2f, 0x81, 0x90,
  0xad, 0xab, 0xb9, 0xc1, 0x16, 0xff, 0x30, 0x41, 0x81, 0x06, 0x34, 0x07,
  0x7f, 0x14, 0x40, 0x1b, 0xc8, 0xb8, 0x6a, 0x46, 0x63, 0x23, 0xe0, 0xed,
  0x81, 0xcd, 0x01, 0x45, 0x18, 0xf6, 0xdc, 0x17, 0xc6, 0x7f, 0x12, 0xc8,
  0x76, 0x18, 0x02, 0xd1, 0x1b, 0x8a, 0x1f, 0x7f, 0xde, 0xd4, 0x4e, 0x8b,
  0xde, 0xfb, 0x5b, 0x81, 0x5b, 0xbf, 0x32, 0x3b, 0x71, 0xfe, 0x2b, 0x81,
  0x3c, 0x7f, 0x01, 0xeb, 0xee, 0x1b, 0x14, 0x46, 0x2a, 0x0c, 0x94, 0x68,
  0xfb, 0xbc, 0xad, 0x7f, 0xeb, 0xd9, 0x05, 0xe0, 0x18, 0x81, 0x1a, 0x2a,
  0xd3, 0x31, 0x83, 0xb9, 0x64, 0x7f, 0x3d, 0x9b, 0x26, 0xdc, 0xd6, 0x0f,
  0x56, 0x7f, 0x18, 0x35, 0xfd, 0x21, 0xf9, 0x22, 0x81, 0xb8, 0x27, 0xd7,
  0x81, 0xcc, 0xfb, 0xd8, 0x3b, 0x32, 0x86, 0xc1, 0xc2, 0x3a, 0xd0, 0x0d,
  0x24, 0x06, 0xb3, 0x7f, 0xe4, 0x0d, 0x7f, 0x09, 0xbe, 0xca, 0xc7, 0x26,
  0x81, 0xad, 0xd6, 0xcb, 0x4d, 0x64, 0xdf, 0x46, 0x62, 0xe3, 0xff, 0xff,
  0x04, 0x00, 0x00, 0x00, 0xc0, 0x00, 0x00, 0x00, 0xd1, 0xf2, 0xff, 0xff,
  0xf8, 0x22, 0x00, 0x00, 0x96, 0x14, 0x00, 0x00, 0xcc, 0xfb, 0xff, 0xff,
  0x89, 0x00, 0x00, 0x00, 0x3b, 0x21, 0x00, 0x00, 0x05, 0x1a, 0x00, 0x00,
  0x1c, 0x06, 0x00, 0x00, 0x1e, 0x50, 0x00, 0x00, 0x2c, 0x0b, 0x00, 0x00,
  0xa6, 0xf2, 0xff, 0xff, 0x17, 0x08, 0x00, 0x00, 0xf6, 0x0d, 0x00, 0x00,
  0x2b, 0x05, 0x00, 0x00, 0xc1, 0xfe, 0xff, 0xff, 0x8d, 0x01, 0x00, 0x00,
  0x9d, 0xfa, 0xff, 0xff, 0x7e, 0x1c, 0x00, 0x00, 0x70, 0xf2, 0xff, 0xff,
  0x11, 0xfe, 0xff, 0xff, 0xbd, 0x04, 0x00, 0x00, 0x50, 0x03, 0x00, 0x00,
  0x30, 0x02, 0x00, 0x00, 0xa6, 0xfb, 0xff, 0xff, 0xcd, 0x00, 0x00, 0x00,
  0x58, 0x13, 0x00, 0x00, 0xd2, 0xf6, 0xff, 0xff, 0xed, 0xf9, 0xff, 0xff,
  0x0f, 0xfc, 0xff, 0xff, 0x55, 0xf6, 0xff, 0xff, 0x49, 0x44, 0x00, 0x00,
  0x08, 0x0b, 0x00, 0x00, 0x1e, 0x04, 0x00, 0x00, 0xfc, 0x03, 0x00, 0x00,
  0xe9, 0x04, 0x00, 0x00, 0xc3, 0x03, 0x00, 0x00, 0x33, 0x06, 0x00, 0x00,
  0x84, 0x1b, 0x00, 0x00, 0xd6, 0x06, 0x00, 0x00, 0x69, 0x03, 0x00, 0x00,
  0xbc, 0x18, 0x00, 0x00, 0x22, 0xf7, 0xff, 0xff, 0xb4, 0x02, 0x00, 0x00,
  0x35, 0x03, 0x00, 0x00, 0x8d, 0xf7, 0xff, 0xff, 0xa9, 0xf8, 0xff, 0xff,
  0xec, 0x37, 0x00, 0x00, 0x99, 0x0a, 0x00, 0x00, 0x2e, 0xe4, 0xff, 0xff,
  0x04, 0x00, 0x00, 0x00, 0xb0, 0x01, 0x00, 0x00, 0x1c, 0xb4, 0xd3, 0x23,
  0x5f, 0x1d, 0x97, 0xd8, 0xf7, 0x20, 0x6d, 0xc1, 0xc5, 0x3d, 0x70, 0x42,
  0x3e, 0xc5, 0x27, 0x1c, 0x81, 0xea, 0x3c, 0x76, 0xa1, 0x00, 0x30, 0x28,
  0x19, 0x7f, 0xc8, 0x3d, 0x1b, 0xc0, 0xa1, 0xe9, 0x28, 0xc2, 0x71, 0x1c,
  0xb1, 0x78, 0x37, 0xee, 0x3e, 0x7f, 0x57, 0xd1, 0x7f, 0xb9, 0xb5, 0x5c,
  0x7f, 0x3d, 0xaf, 0xbc, 0x00, 0x3a, 0x4b, 0x90, 0xbe, 0x52, 0x7a, 0x45,
  0x3f, 0x9c, 0x27, 0x62, 0x9d, 0xdf, 0x7f, 0x75, 0x85, 0xd8, 0x6c, 0x38,
  0x5e, 0x7c, 0xbb, 0x38, 0x15, 0x9c, 0xb5, 0xc8, 0x47, 0xae, 0x72, 0x1c,
  0x9a, 0x7f, 0x1a, 0xbb, 0x50, 0x66, 0x5f, 0xa8, 0x1f, 0xc0, 0xbd, 0x31,
  0x2a, 0x07, 0x00, 0xde, 0x18, 0xf4, 0xe8, 0xca, 0xdd, 0x19, 0x1e, 0x10,
  0xfb, 0xff, 0x17, 0x37, 0xc3, 0xc1, 0x2a, 0x2c, 0xc6, 0x04, 0x25, 0x1a,
  0x15, 0x38, 0xec, 0x0c, 0xfd, 0xb6, 0xe6, 0xe0, 0x0c, 0xd7, 0x1b, 0x01,
  0xc8, 0x30, 0x1e, 0xce, 0x20, 0x38, 0x1a, 0xb0, 0x42, 0x9d, 0xb5, 0x73,
  0x65, 0x6b, 0x81, 0x84, 0x4d, 0x54, 0x6b, 0xb5, 0x96, 0x59, 0x7f, 0x5c,
  0x7c, 0xb6, 0x36, 0x6e, 0xb3, 0xa3, 0x57, 0x7f, 0x81, 0xcb, 0x7f, 0x6e,
  0x45, 0x61, 0x9f, 0x57, 0x5f, 0xa8, 0x81, 0x93, 0x4e, 0x8d, 0x6d, 0x75,
  0xa4, 0x20, 0x64, 0x81, 0x74, 0x53, 0x13, 0xa6, 0x49, 0x88, 0x81, 0x7f,
  0x78, 0x7f, 0x8c, 0x81, 0x69, 0x7f, 0x7f, 0x81, 0x81, 0x7f, 0x72, 0x6d,
  0x7f, 0x81, 0x42, 0x7f, 0x8a, 0x81, 0x78, 0x78, 0x9b, 0x81, 0x6e, 0x7f,
  0x7f, 0x5d, 0x81, 0x7f, 0x7f, 0x81, 0x98, 0x81, 0x7f, 0x81, 0x7f, 0x7f,
  0x81, 0xf5, 0x7f, 0x8a, 0x7f, 0x48, 0x17, 0x81, 0xe9, 0x81, 0x98, 0x37,
  0x32, 0x21, 0xc4, 0xe5, 0x3e, 0x1e, 0xe2, 0xd5, 0xb4, 0x45, 0x44, 0x55,
  0x15, 0xe4, 0x0b, 0x50, 0xd2, 0xc7, 0x49, 0x11, 0xc1, 0xf1, 0x1b, 0x2c,
  0x13, 0x2e, 0xcc, 0x1b, 0x34, 0xa7, 0x95, 0xc6, 0x41, 0xc7, 0x09, 0x26,
  0xc9, 0xfb, 0x23, 0xb5, 0x51, 0x08, 0xf8, 0x9c, 0xd9, 0xd7, 0xd4, 0x43,
  0x20, 0x42, 0xd3, 0xd8, 0x81, 0x2a, 0x46, 0xe5, 0xb1, 0x10, 0x4b, 0x78,
  0x32, 0x10, 0x9d, 0x25, 0xe1, 0xb9, 0x4d, 0x33, 0xa2, 0xb3, 0x3d, 0x40,
  0x06, 0x21, 0xad, 0x2c, 0x50, 0xdf, 0xda, 0xd0, 0x39, 0xbc, 0x24, 0x69,
  0xea, 0x34, 0x36, 0xef, 0xee, 0xe3, 0x9a, 0xd1, 0xac, 0x86, 0xc1, 0x60,
  0x38, 0x6b, 0xbf, 0xdf, 0x95, 0x32, 0x41, 0xcb, 0xad, 0x1f, 0x17, 0x7f,
  0x49, 0x10, 0x81, 0x49, 0xcc, 0x8c, 0x79, 0x25, 0xc4, 0xba, 0x36, 0x38,
  0x14, 0x00, 0xb6, 0x31, 0x4b, 0xb5, 0xe8, 0xcf, 0x4b, 0xb1, 0x4d, 0x6b,
  0xf4, 0x56, 0x64, 0xac, 0x1a, 0xec, 0x81, 0xb9, 0xc1, 0xcc, 0xbd, 0x40,
  0x1a, 0x20, 0x26, 0xf4, 0x9d, 0x09, 0x2d, 0xff, 0xc1, 0x27, 0x22, 0x4e,
  0x19, 0x20, 0xaa, 0x19, 0xd5, 0xe6, 0x48, 0xf7, 0xc5, 0x03, 0x17, 0x27,
  0xef, 0x03, 0xdb, 0x19, 0x0b, 0xc9, 0x04, 0xed, 0x19, 0xd8, 0x09, 0x2c,
  0xfd, 0x08, 0x14, 0xd6, 0x10, 0xfe, 0xd3, 0xe7, 0xea, 0xe5, 0xff, 0xff,
  0x04, 0x00, 0x00, 0x00, 0xc0, 0x00, 0x00, 0x00, 0xef, 0xfd, 0xff, 0xff,
  0x8f, 0x8b, 0x00, 0x00, 0xed, 0x75, 0x00, 0x00, 0x0d, 0xfc, 0xff, 0xff,
  0x66, 0xfc, 0xff, 0xff, 0x45, 0xc9, 0xff, 0xff, 0xe5, 0x56, 0x00, 0x00,
  0x98, 0x42, 0x00, 0x00, 0x00, 0xef, 0xff, 0xff, 0xaa, 0xfe, 0xff, 0xff,
  0x58, 0xfc, 0xff, 0xff, 0xb6, 0x3c, 0x00, 0x00, 0x02, 0x4f, 0x00, 0x00,
  0xd9, 0xc9, 0xff, 0xff, 0x55, 0xcf, 0xff, 0xff, 0x45, 0xef, 0xff, 0xff,
  0xc8, 0x03, 0x00, 0x00, 0xb3, 0x57, 0x00, 0x00, 0xc2, 0xfd, 0xff, 0xff,
  0x36, 0xf2, 0xff, 0xff, 0x9a, 0xf0, 0x00, 0x00, 0xe3, 0x28, 0x00, 0x00,
  0x13, 0xcf, 0xff, 0xff, 0x8e, 0xef, 0xff, 0xff, 0x24, 0x4c, 0x00, 0x00,
  0xf9, 0x2f, 0x00, 0x00, 0x9c, 0xfa, 0xff, 0xff, 0xa8, 0xfc, 0xff, 0xff,
  0xb2, 0xf1, 0xff, 0xff, 0x33, 0xfd, 0xff, 0xff, 0xfe, 0x8b, 0x00, 0x00,
  0xfe, 0x06, 0x00, 0x00, 0xd4, 0xf9, 0xff, 0xff, 0xe1, 0x29, 0x00, 0x00,
  0x8b, 0x32, 0x00, 0x00, 0xb5, 0x2c, 0x00, 0x00, 0x2e, 0xec, 0xff, 0xff,
  0x21, 0xc8, 0x00, 0x00, 0x58, 0xf3, 0xff, 0xff, 0x8a, 0x07, 0x00, 0x00,
  0xdd, 0x6b, 0x00, 0x00, 0x8f, 0xff, 0xff, 0xff, 0xe8, 0xfa, 0xff, 0xff,
  0xff, 0x2f, 0x00, 0x00, 0xb1, 0x02, 0x00, 0x00, 0x12, 0xfc, 0xff, 0xff,
  0x7c, 0xee, 0xff, 0xff, 0x6e, 0x3b, 0x00, 0x00, 0xb6, 0xe6, 0xff, 0xff,
  0x04, 0x00, 0x00, 0x00, 0x80, 0x01, 0x00, 0x00, 0xe2, 0xe1, 0x31, 0xd1,
  0x33, 0x4f, 0x42, 0x4f, 0x65, 0xd3, 0xef, 0x33, 0xe6, 0xeb, 0x05, 0xf3,
  0x1d, 0x28, 0x14, 0xcc, 0xde, 0x11, 0xac, 0xce, 0x1c, 0xf2, 0x0e, 0xae,
  0xd9, 0x11, 0x23, 0x19, 0x18, 0x26, 0x3f, 0x0e, 0x7f, 0xd9, 0xb4, 0xf8,
  0xbb, 0xbe, 0xcb, 0xf8, 0xc8, 0xa2, 0x81, 0x3e, 0xf8, 0x0b, 0xd9, 0x38,
  0x03, 0x0f, 0xda, 0xf3, 0xbf, 0x15, 0x0b, 0x53, 0xe3, 0xfb, 0xf0, 0x7f,
  0x1c, 0x2f, 0x11, 0xe5, 0xd9, 0xef, 0xbf, 0x19, 0x09, 0xfb, 0xf0, 0xab,
  0x26, 0xf9, 0xc5, 0xbc, 0x39, 0xe2, 0xe0, 0xd0, 0x24, 0x23, 0x36, 0xd2,
  0x03, 0x49, 0x30, 0xe0, 0x0b, 0xd9, 0xc6, 0xee, 0x0b, 0xae, 0xe4, 0xfd,
  0xe0, 0x0f, 0x06, 0x0f, 0x6e, 0x0e, 0xf5, 0xe1, 0xd5, 0x9a, 0x25, 0x07,
  0x00, 0xb5, 0xf1, 0xfe, 0x9a, 0x2b, 0x02, 0x1c, 0xfb, 0x2f, 0xe3, 0xda,
  0xde, 0xd9, 0x27, 0xcc, 0x93, 0x14, 0xc2, 0x3c, 0xb9, 0x40, 0xef, 0xe3,
  0x7f, 0xf9, 0xf6, 0x24, 0x2d, 0x2e, 0xbc, 0xdc, 0xde, 0x92, 0x57, 0x33,
  0x19, 0x9b, 0xe4, 0xf0, 0x81, 0x7d, 0x35, 0xce, 0x2f, 0x05, 0xf0, 0x12,
  0x38, 0x23, 0xdb, 0x20, 0x47, 0x54, 0x20, 0xc6, 0x10, 0x57, 0x4d, 0x22,
  0xe1, 0xbf, 0x0f, 0x0b, 0xe7, 0x10, 0x33, 0x0c, 0xf2, 0xa9, 0xd0, 0x31,
  0xe2, 0xf5, 0x1d, 0xd0, 0xb3, 0x16, 0xf7, 0x15, 0xf8, 0x32, 0xf2, 0x3b,
  0x20, 0xff, 0x12, 0x01, 0xd9, 0x41, 0x29, 0x4f, 0xff, 0x12, 0x38, 0x09,
  0x0b, 0xad, 0xff, 0xed, 0x53, 0xf6, 0xa3, 0x3c, 0x46, 0xf3, 0x21, 0x23,
  0x2c, 0x17, 0xf6, 0xcc, 0xd0, 0x7f, 0x03, 0x0c, 0x32, 0xe9, 0x19, 0x15,
  0xf0, 0x24, 0x02, 0xf1, 0xfb, 0xd7, 0xed, 0x0b, 0xed, 0x02, 0xfb, 0xb1,
  0x82, 0x26, 0x72, 0x21, 0x0a, 0x33, 0xe8, 0xf0, 0x91, 0xf0, 0x4b, 0xdc,
  0xb1, 0x1e, 0xc5, 0xbb, 0x0a, 0x7f, 0xfb, 0x38, 0x6e, 0x30, 0x0f, 0x13,
  0xe2, 0xf0, 0x71, 0xc0, 0xf0, 0x73, 0x46, 0x5f, 0xe6, 0x30, 0x64, 0x2d,
  0xfb, 0xe0, 0xf5, 0x2e, 0xc1, 0x3e, 0x1a, 0x37, 0xfb, 0xe4, 0x01, 0x17,
  0xca, 0xc8, 0x11, 0x05, 0x17, 0xfc, 0x28, 0x06, 0xc8, 0xe4, 0x23, 0x3f,
  0x03, 0xc7, 0x0a, 0xb9, 0x45, 0xe9, 0xf9, 0xdf, 0x06, 0xfe, 0x07, 0x22,
  0x26, 0x00, 0x0f, 0x7f, 0x2f, 0xf2, 0xf0, 0x14, 0x06, 0xf3, 0x13, 0x08,
  0xfc, 0x24, 0xe6, 0xcf, 0xfb, 0xe1, 0xeb, 0x28, 0xe3, 0xf6, 0xd2, 0x00,
  0x01, 0xe8, 0x05, 0x07, 0x2f, 0x00, 0x13, 0x00, 0xfe, 0x11, 0xff, 0xff,
  0x18, 0xf8, 0xff, 0xfa, 0xc7, 0x07, 0x0c, 0xe4, 0x02, 0xf8, 0xc6, 0xf9,
  0xf0, 0xf4, 0x11, 0x1c, 0x10, 0xf7, 0x21, 0x09, 0xeb, 0x7f, 0xed, 0xd6,
  0xd5, 0xfd, 0xd0, 0xe3, 0x15, 0x39, 0xc1, 0xf3, 0x42, 0xe8, 0xff, 0xff,
  0x04, 0x00, 0x00, 0x00, 0x20, 0x00, 0x00, 0x00, 0x1b, 0x17, 0x00, 0x00,
  0xc4, 0xf5, 0xff, 0xff, 0x00, 0x44, 0x00, 0x00, 0x3d, 0xe7, 0xff, 0xff,
  0xf7, 0xcc, 0xff, 0xff, 0x74, 0xbe, 0xff, 0xff, 0x33, 0xe9, 0xff, 0xff,
  0xa5, 0xf9, 0xff, 0xff, 0x6e, 0xe8, 0xff, 0xff, 0x04, 0x00, 0x00, 0x00,
  0x80, 0x01, 0x00, 0x00, 0xb5, 0x81, 0xd7, 0x1a, 0xdd, 0xee, 0x32, 0xd1,
  0xdf, 0x7f, 0x34, 0x97, 0x05, 0xa8, 0xbe, 0x5e, 0x81, 0xbc, 0x34, 0x18,
  0x58, 0x0d, 0x1b, 0xe6, 0xf8, 0xe6, 0x81, 0xb6, 0x1b, 0xde, 0xdc, 0x3b,
  0xe3, 0xb6, 0x4c, 0xeb, 0x7f, 0xe1, 0x19, 0xf9, 0xd8, 0x25, 0x28, 0xa6,
  0x4a, 0x01, 0xc0, 0x7f, 0x8c, 0x52, 0x3c, 0x3d, 0xd3, 0x0c, 0x16, 0x81,
  0x2c, 0xcd, 0x24, 0x14, 0x2a, 0x81, 0xf8, 0x7c, 0xfc, 0x55, 0xef, 0xdd,
  0x11, 0x58, 0x7f, 0xc5, 0x54, 0x7f, 0xfd, 0xc5, 0xb7, 0xb4, 0xda, 0x6e,
  0x1c, 0x00, 0x1f, 0xfd, 0xe2, 0x26, 0x81, 0xbd, 0xb8, 0x0c, 0xa9, 0xb6,
  0x7f, 0x22, 0x25, 0x35, 0x53, 0x1c, 0xe7, 0xf8, 0x7f, 0x53, 0xfc, 0xf0,
  0x84, 0x81, 0xec, 0x55, 0x82, 0x1d, 0x5d, 0x1c, 0x03, 0x3a, 0x9a, 0x50,
  0xe6, 0x7f, 0xe3, 0x13, 0x0e, 0x9a, 0xb6, 0xa7, 0x7f, 0x18, 0xd4, 0x60,
  0x3e, 0xbe, 0x08, 0x30, 0x19, 0xf6, 0x1d, 0x81, 0xc6, 0xc8, 0x81, 0x6a,
  0x00, 0x48, 0x4a, 0xb0, 0x4f, 0xde, 0x6f, 0x06, 0xc3, 0x81, 0xc3, 0xf7,
  0xf4, 0x7f, 0x23, 0x2c, 0x5a, 0x92, 0xcd, 0xe5, 0xdc, 0xeb, 0x81, 0xf1,
  0x18, 0xf7, 0x05, 0xfd, 0x95, 0x07, 0x3e, 0x1e, 0xbd, 0xd4, 0x7f, 0xdb,
  0x2e, 0xfc, 0x81, 0xb8, 0xe7, 0xfa, 0xff, 0x2e, 0xe3, 0x2c, 0x7f, 0xe5,
  0xb1, 0x24, 0xfb, 0x8c, 0xd6, 0x60, 0x37, 0x7f, 0x59, 0x3e, 0x10, 0xd6,
  0xf0, 0x81, 0xa6, 0x35, 0xcf, 0x1e, 0x30, 0x02, 0x4e, 0x7a, 0x81, 0x9f,
  0x81, 0xee, 0xb6, 0x33, 0x42, 0x3c, 0xb7, 0x3a, 0x81, 0x0a, 0xdf, 0xfa,
  0xea, 0x31, 0x00, 0xa8, 0x4e, 0x52, 0x81, 0x82, 0x46, 0xeb, 0xff, 0xb7,
  0x81, 0x11, 0x16, 0x9f, 0xa6, 0xf7, 0x2c, 0x7f, 0x48, 0x23, 0xcc, 0xd8,
  0x15, 0x95, 0xef, 0xcc, 0x81, 0x22, 0xd7, 0xa9, 0x81, 0x01, 0x1c, 0xfa,
  0x01, 0xe1, 0x03, 0x11, 0x1c, 0xcf, 0x81, 0xad, 0xfb, 0xf8, 0xdd, 0x18,
  0x14, 0x1b, 0x2f, 0xff, 0x81, 0xa7, 0x3c, 0xde, 0x56, 0x26, 0x1a, 0x1c,
  0x81, 0xd0, 0x8e, 0xd8, 0x7f, 0xfc, 0x50, 0xc9, 0x00, 0xf4, 0x3f, 0x5f,
  0x7f, 0x71, 0xe2, 0xfc, 0x47, 0x30, 0x87, 0x45, 0xd6, 0x7f, 0x62, 0x64,
  0xfb, 0x46, 0x31, 0x99, 0x23, 0x35, 0x7f, 0xcb, 0x5f, 0xcb, 0xd9, 0x02,
  0x59, 0x46, 0x25, 0xf8, 0xb9, 0x81, 0x40, 0xc3, 0x07, 0xba, 0x0e, 0x7f,
  0xdd, 0x2e, 0xfb, 0x4c, 0xe2, 0xaf, 0x4d, 0xc7, 0x7f, 0xf5, 0x61, 0x09,
  0x07, 0xe2, 0x81, 0xdc, 0x71, 0x19, 0xd5, 0x66, 0x45, 0xdf, 0x7f, 0xec,
  0x00, 0x1a, 0xbe, 0x1d, 0x0a, 0x2a, 0x1c, 0x11, 0x94, 0x81, 0x02, 0x62,
  0xd7, 0x43, 0x31, 0x27, 0xfd, 0xe0, 0x2a, 0x81, 0x1f, 0xef, 0x11, 0x7f,
  0x06, 0xa2, 0x42, 0x3a, 0xfa, 0xe9, 0xff, 0xff, 0x04, 0x00, 0x00, 0x00,
  0xc0, 0x00, 0x00, 0x00, 0x56, 0x03, 0x00, 0x00, 0x58, 0x16, 0x00, 0x00,
  0xad, 0xd8, 0xff, 0xff, 0x1f, 0x1e, 0x00, 0x00, 0xfb, 0x09, 0x00, 0x00,
  0x6b, 0x17, 0x00, 0x00, 0x80, 0x13, 0x00, 0x00, 0x92, 0x3e, 0x00, 0x00,
  0x84, 0x2a, 0x00, 0x00, 0xb4, 0x23, 0x00, 0x00, 0xc7, 0xfa, 0xff, 0xff,
  0xb0, 0xfc, 0xff, 0xff, 0x65, 0x05, 0x00, 0x00, 0x15, 0x22, 0x00, 0x00,
  0x56, 0x06, 0x00, 0x00, 0xf9, 0xfc, 0xff, 0xff, 0x2b, 0xfd, 0xff, 0xff,
  0xab, 0x18, 0x00, 0x00, 0x4a, 0x26, 0x00, 0x00, 0x7f, 0xff, 0xff, 0xff,
  0x7e, 0x09, 0x00, 0x00, 0x42, 0x1c, 0x00, 0x00, 0x4d, 0x0e, 0x00, 0x00,
  0x6c, 0x23, 0x00, 0x00, 0x10, 0x39, 0x00, 0x00, 0x9d, 0x2d, 0x00, 0x00,
  0xfa, 0x06, 0x00, 0x00, 0xe4, 0x2f, 0x00, 0x00, 0x08, 0x08, 0x00, 0x00,
  0x75, 0x16, 0x00, 0x00, 0x9e, 0xf0, 0xff, 0xff, 0xf8, 0x19, 0x00, 0x00,
  0x7a, 0x02, 0x00, 0x00, 0xbc, 0x20, 0x00, 0x00, 0x99, 0x22, 0x00, 0x00,
  0x72, 0x13, 0x00, 0x00, 0x59, 0x44, 0x09, 0x00, 0xca, 0x34, 0x00, 0x00,
  0xa7, 0x13, 0x00, 0x00, 0xbd, 0x55, 0x00, 0x00, 0x1d, 0x10, 0x00, 0x00,
  0x5f, 0x04, 0x00, 0x00, 0x13, 0x0f, 0x00, 0x00, 0x6c, 0x04, 0x00, 0x00,
  0x1b, 0x10, 0x00, 0x00, 0x81, 0x0f, 0x00, 0x00, 0xf3, 0x0b, 0x00, 0x00,
  0x23, 0x10, 0x00, 0x00, 0xc6, 0xea, 0xff, 0xff, 0x04, 0x00, 0x00, 0x00,
  0xb0, 0x01, 0x00, 0x00, 0x9e, 0xfb, 0x62, 0xfe, 0x7f, 0xd5, 0x1f, 0x0d,
  0x01, 0x24, 0x08, 0xe3, 0x32, 0x3b, 0xa6, 0xfa, 0x3a, 0xd0, 0xdb, 0x5a,
  0xc8, 0x30, 0xd6, 0xef, 0xe8, 0x10, 0x30, 0xda, 0xf3, 0x7f, 0x20, 0x97,
  0xc0, 0x62, 0x59, 0x81, 0x11, 0xd9, 0x81, 0xe9, 0x1d, 0xea, 0xf1, 0xd0,
  0xf9, 0xbb, 0xb2, 0x04, 0x93, 0x54, 0xfe, 0x26, 0xfa, 0xb1, 0x7e, 0xf5,
  0x51, 0x0a, 0xe7, 0x7f, 0x57, 0x7f, 0xdc, 0x1e, 0x38, 0x9d, 0x00, 0x7f,
  0xed, 0xfa, 0x5f, 0x81, 0xfa, 0x37, 0xae, 0x1c, 0xf5, 0xa8, 0x7f, 0x81,
  0x81, 0xb2, 0xde, 0xe0, 0xc9, 0xef, 0x8d, 0x09, 0xd1, 0xdf, 0x00, 0x81,
  0x1e, 0xb6, 0x0a, 0x1f, 0xca, 0x10, 0x41, 0xfd, 0x3d, 0xe2, 0x25, 0x07,
  0xe6, 0x1b, 0x14, 0xea, 0x2d, 0x49, 0xac, 0x09, 0x33, 0xd2, 0xf0, 0x62,
  0xf5, 0x27, 0xce, 0xe8, 0x09, 0x13, 0x22, 0xa1, 0xed, 0x3d, 0xf1, 0xb9,
  0x1a, 0xfb, 0x57, 0x96, 0x14, 0xd5, 0x93, 0x09, 0x1b, 0xdc, 0xf2, 0xef,
  0xf8, 0x90, 0x81, 0xee, 0x81, 0x6e, 0xd9, 0xaa, 0x03, 0xc5, 0xff, 0x05,
  0x0c, 0x14, 0x03, 0x41, 0x46, 0x4f, 0xcb, 0x1b, 0x7f, 0x81, 0x07, 0x57,
  0xc8, 0xc1, 0xa8, 0xed, 0x81, 0x06, 0xfa, 0x18, 0xfd, 0xfd, 0x56, 0xa2,
  0xc1, 0x7f, 0xa7, 0x8b, 0x25, 0xc9, 0x30, 0x52, 0x81, 0x03, 0xc5, 0x5c,
  0xe7, 0xec, 0x1f, 0xc5, 0x11, 0x7b, 0x7f, 0x7f, 0xd3, 0x69, 0x81, 0x7f,
  0x7f, 0x81, 0x81, 0x61, 0x7f, 0x3a, 0x7f, 0xb2, 0xd8, 0xa4, 0x7f, 0x06,
  0x81, 0x7f, 0x7f, 0xef, 0x63, 0x7f, 0x44, 0x7f, 0x7f, 0xad, 0x60, 0x0b,
  0xea, 0xa0, 0xcd, 0xa0, 0x7f, 0x7f, 0x6b, 0x34, 0xaf, 0x7f, 0xf4, 0x53,
  0x7f, 0x65, 0xfd, 0x81, 0xb1, 0x3a, 0xc1, 0xbc, 0xc0, 0xae, 0x09, 0xf6,
  0xc8, 0x14, 0xff, 0x62, 0x24, 0x55, 0x8a, 0x5e, 0x65, 0xaf, 0x07, 0x36,
  0x36, 0x90, 0xb7, 0xc4, 0x2a, 0x09, 0xf8, 0x0d, 0xff, 0x1d, 0x46, 0xd1,
  0x14, 0xd4, 0x81, 0xbd, 0x17, 0x86, 0x2a, 0x81, 0xba, 0xf8, 0x7f, 0x68,
  0xd1, 0x81, 0x06, 0x6f, 0xaf, 0xeb, 0x16, 0xe7, 0x0b, 0xd6, 0xff, 0x0b,
  0x4f, 0x20, 0x37, 0x0b, 0xf8, 0xfa, 0xbb, 0x5b, 0x55, 0xae, 0xd9, 0xc3,
  0xde, 0x10, 0xd5, 0x2a, 0xe4, 0x02, 0xf2, 0xf8, 0x02, 0x37, 0xe0, 0x28,
  0x02, 0x3b, 0x91, 0x34, 0xcd, 0xf4, 0x44, 0xe5, 0x39, 0x00, 0xf9, 0x00,
  0xe3, 0xf7, 0x1c, 0xcd, 0x8b, 0x7f, 0xf4, 0x06, 0x9e, 0x81, 0x2c, 0xc6,
  0x76, 0x19, 0x50, 0xb6, 0xef, 0x44, 0xc6, 0x7f, 0x53, 0x1a, 0x02, 0x19,
  0xce, 0x0b, 0x6d, 0x62, 0x10, 0x92, 0x7f, 0x11, 0x13, 0xd1, 0xcc, 0xc9,
  0x09, 0xcf, 0xa1, 0xa2, 0xb1, 0xbf, 0x2d, 0x28, 0x5b, 0x2f, 0xd2, 0x3a,
  0xdf, 0xf6, 0xcb, 0xeb, 0xe7, 0xff, 0x24, 0xef, 0xe9, 0xf3, 0xfd, 0x16,
  0x3e, 0x1f, 0x4d, 0x27, 0x23, 0xe4, 0xcd, 0x1d, 0x08, 0x9e, 0xd5, 0xd8,
  0xeb, 0xf9, 0xdb, 0x1a, 0x16, 0x0a, 0xfb, 0xcb, 0x05, 0xfc, 0xe1, 0x1e,
  0x09, 0xf4, 0xc7, 0x5b, 0xd5, 0xd1, 0x48, 0x06, 0x31, 0xe2, 0x14, 0xf7,
  0xdf, 0xde, 0x25, 0x13, 0x82, 0xec, 0xff, 0xff, 0x04, 0x00, 0x00, 0x00,
  0xc0, 0x00, 0x00, 0x00, 0xd4, 0x73, 0x00, 0x00, 0x45, 0xb9, 0xff, 0xff,
  0xcc, 0xfa, 0xff, 0xff, 0x41, 0x13, 0x00, 0x00, 0x1d, 0x06, 0x00, 0x00,
  0xbc, 0x23, 0x00, 0x00, 0x61, 0x1a, 0x00, 0x00, 0x46, 0xe9, 0xff, 0xff,
  0xd5, 0xdb, 0xff, 0xff, 0xf7, 0xfc, 0xff, 0xff, 0x14, 0x02, 0x00, 0x00,
  0x20, 0xf5, 0xff, 0xff, 0xa9, 0xd2, 0xff, 0xff, 0x6d, 0xb6, 0xff, 0xff,
  0x2d, 0x20, 0x00, 0x00, 0xb8, 0x0b, 0x00, 0x00, 0x43, 0xe9, 0xff, 0xff,
  0xcb, 0xa3, 0x00, 0x00, 0x21, 0xf9, 0xff, 0xff, 0x02, 0xd6, 0xff, 0xff,
  0x7f, 0x3e, 0x00, 0x00, 0xd3, 0xef, 0xff, 0xff, 0xdb, 0xf5, 0xff, 0xff,
  0xa5, 0x13, 0x00, 0x00, 0x95, 0xff, 0xff, 0xff, 0x88, 0xea, 0xff, 0xff,
  0xde, 0xdd, 0xff, 0xff, 0x11, 0xf8, 0xff, 0xff, 0x42, 0xf9, 0xff, 0xff,
  0xa6, 0xfc, 0xff, 0xff, 0x94, 0x01, 0x00, 0x00, 0x1e, 0x57, 0x00, 0x00,
  0xcf, 0x39, 0x00, 0x00, 0xd5, 0xfd, 0xff, 0xff, 0xbe, 0x3c, 0x00, 0x00,
  0x93, 0x5a, 0x00, 0x00, 0x0f, 0xff, 0xff, 0xff, 0xe9, 0x4d, 0x00, 0x00,
  0x61, 0x03, 0x00, 0x00, 0x01, 0xfb, 0xff, 0xff, 0x14, 0xfe, 0xff, 0xff,
  0x34, 0xee, 0xff, 0xff, 0x18, 0xfe, 0xff, 0xff, 0x74, 0x01, 0x00, 0x00,
  0x96, 0x16, 0x00, 0x00, 0x7a, 0x5b, 0x00, 0x00, 0x7e, 0x22, 0x00, 0x00,
  0x60, 0xf8, 0xff, 0xff, 0x4e, 0xed, 0xff, 0xff, 0x04, 0x00, 0x00, 0x00,
  0x80, 0x01, 0x00, 0x00, 0x33, 0x3e, 0xab, 0x43, 0x01, 0x23, 0x9b, 0xe3,
  0x15, 0xe9, 0xf9, 0xd8, 0xe8, 0x05, 0x22, 0x01, 0x3a, 0xef, 0x2f, 0xda,
  0x12, 0xdc, 0x38, 0x0e, 0x0b, 0xe7, 0xe1, 0x04, 0xec, 0x06, 0xe5, 0x03,
  0x2b, 0x1a, 0x0e, 0x0b, 0x7f, 0x43, 0x2b, 0xe9, 0x0b, 0xe6, 0xe8, 0xde,
  0x63, 0x18, 0x1a, 0xd3, 0x4f, 0x29, 0x01, 0x03, 0x10, 0x51, 0xed, 0xf7,
  0x22, 0x58, 0xcd, 0xb4, 0x72, 0xeb, 0x10, 0x11, 0x0e, 0x39, 0xfb, 0x90,
  0x73, 0xe4, 0x3e, 0x42, 0x27, 0x17, 0x2d, 0xfc, 0x0f, 0xd1, 0x2f, 0x3f,
  0x39, 0x73, 0xeb, 0x60, 0x38, 0x1b, 0x22, 0x1f, 0x4b, 0xf6, 0x11, 0x05,
  0x2e, 0x19, 0x7f, 0xbf, 0x07, 0x23, 0x4b, 0x7f, 0xf8, 0x12, 0xfb, 0x41,
  0x29, 0x5f, 0x13, 0xb4, 0xe1, 0x5b, 0x20, 0x15, 0x98, 0xb2, 0x26, 0xff,
  0xf6, 0x3f, 0xcd, 0xaf, 0xee, 0xd2, 0x28, 0xe4, 0x85, 0x17, 0x02, 0x07,
  0xde, 0xf4, 0x95, 0xd2, 0x0c, 0x13, 0xb0, 0xe0, 0xce, 0xb3, 0xc6, 0x05,
  0x4a, 0xac, 0xed, 0x25, 0xdc, 0x3f, 0xc3, 0x00, 0xf2, 0xbb, 0x09, 0x42,
  0x6d, 0xc0, 0xcb, 0x0d, 0xf6, 0xf2, 0x05, 0x39, 0x0d, 0x0d, 0xdd, 0xde,
  0xf4, 0x0a, 0xb1, 0x44, 0xe6, 0xeb, 0x16, 0xdb, 0x4d, 0xf1, 0x25, 0xd1,
  0x18, 0xed, 0xe8, 0xd5, 0x81, 0x11, 0xca, 0x1c, 0xfa, 0xc8, 0x1c, 0x05,
  0xd5, 0xff, 0xed, 0xe5, 0x2f, 0xdf, 0x10, 0xe4, 0xf1, 0x37, 0x1e, 0x32,
  0x8b, 0xb2, 0x54, 0x26, 0x5b, 0xbd, 0xcb, 0xe6, 0x55, 0x2c, 0x59, 0x0b,
  0x0c, 0x9f, 0xdc, 0x1a, 0xe9, 0x04, 0xdd, 0xad, 0xce, 0xbb, 0x62, 0x26,
  0x54, 0x01, 0x7f, 0x68, 0x45, 0x36, 0x24, 0x13, 0xf5, 0x2b, 0xdc, 0xef,
  0x37, 0x5e, 0x46, 0xc4, 0x0d, 0x36, 0x08, 0x51, 0x25, 0x1b, 0xdb, 0xb2,
  0xb5, 0xf7, 0xf9, 0x00, 0x11, 0x37, 0x1f, 0xcc, 0x5c, 0x4f, 0x03, 0x27,
  0xfb, 0xc9, 0xf3, 0xbd, 0xaf, 0xb8, 0xdc, 0x4c, 0xf9, 0x30, 0xe4, 0x1d,
  0x04, 0xb5, 0x40, 0x0c, 0xe2, 0x7f, 0xdc, 0xa9, 0xed, 0xe0, 0xfc, 0xdd,
  0xf5, 0xfd, 0xcb, 0x4e, 0x6d, 0x38, 0x06, 0x7f, 0xc6, 0x13, 0x0b, 0x44,
  0x0c, 0xa3, 0x46, 0x5c, 0x57, 0xd7, 0xea, 0xd6, 0x38, 0x1e, 0xc2, 0x22,
  0x49, 0xe7, 0xef, 0xee, 0x0f, 0x33, 0x00, 0xd8, 0x16, 0xd1, 0x41, 0x2e,
  0x17, 0xd6, 0xfd, 0x5a, 0x6a, 0xb8, 0x01, 0x19, 0x9d, 0x45, 0x9f, 0x28,
  0x48, 0x72, 0x6d, 0xc9, 0x1c, 0x13, 0x7f, 0x29, 0xaa, 0x47, 0xa8, 0x07,
  0xe2, 0x79, 0xee, 0xe6, 0x2d, 0x3b, 0x0a, 0xee, 0xc5, 0xfc, 0xaf, 0xf3,
  0xf5, 0x1d, 0x02, 0xe9, 0xef, 0x26, 0x1e, 0xd0, 0x03, 0x09, 0x10, 0xf3,
  0xab, 0xed, 0x3d, 0x14, 0x52, 0xfa, 0x35, 0xf0, 0xfb, 0xd6, 0xd6, 0xc8,
  0x0c, 0xd1, 0x0e, 0x25, 0xda, 0xee, 0xff, 0xff, 0x04, 0x00, 0x00, 0x00,
  0x20, 0x00, 0x00, 0x00, 0xe6, 0xcc, 0xff, 0xff, 0xe6, 0x82, 0xff, 0xff,
  0x33, 0x08, 0x00, 0x00, 0x9a, 0x12, 0x00, 0x00, 0x16, 0xbe, 0xff, 0xff,
  0x32, 0xfb, 0xff, 0xff, 0xe7, 0x9b, 0xff, 0xff, 0xac, 0xff, 0xff, 0xff,
  0x06, 0xef, 0xff, 0xff, 0x04, 0x00, 0x00, 0x00, 0x80, 0x01, 0x00, 0x00,
  0x81, 0x1a, 0xe5, 0xe3, 0x48, 0x40, 0xf6, 0xe2, 0xf7, 0x9d, 0xc4, 0xe4,
  0xbc, 0x81, 0x05, 0x2a, 0xbd, 0x51, 0x0a, 0xc1, 0xca, 0x34, 0xbb, 0x7f,
  0x37, 0x36, 0x48, 0xdb, 0xc1, 0x81, 0x2e, 0x05, 0x13, 0x25, 0x81, 0x14,
  0xa7, 0x67, 0x15, 0x25, 0xeb, 0x2e, 0x1a, 0xd2, 0xaa, 0x81, 0xc8, 0x08,
  0xd8, 0x7f, 0x52, 0xf0, 0xcb, 0xd8, 0x19, 0xdf, 0xfc, 0xff, 0x21, 0x4e,
  0x09, 0x81, 0x03, 0x29, 0x7f, 0x1c, 0xb7, 0x5b, 0xbe, 0xc3, 0x8b, 0xe7,
  0x62, 0xee, 0xd7, 0xbd, 0x05, 0xeb, 0xe7, 0x7f, 0xae, 0x14, 0x21, 0x7f,
  0x1e, 0x6f, 0x0a, 0x92, 0x23, 0x0b, 0x32, 0xe2, 0x1a, 0x7f, 0x6f, 0x51,
  0x89, 0x9f, 0xa5, 0xbc, 0x7f, 0xcd, 0xe9, 0x3d, 0xf2, 0xef, 0xf7, 0x30,
  0x0b, 0x81, 0x22, 0x45, 0x49, 0x60, 0x7f, 0x01, 0x6a, 0x91, 0x95, 0xf8,
  0xd5, 0x34, 0x7f, 0x3b, 0xfc, 0x1c, 0x1a, 0xa5, 0xba, 0xcb, 0x1b, 0xe2,
  0x7f, 0x0c, 0xde, 0xe4, 0x2d, 0xd6, 0xd6, 0x08, 0xf4, 0x7f, 0xed, 0x27,
  0xd2, 0x72, 0x7f, 0xab, 0xab, 0x57, 0x5a, 0x82, 0xf3, 0x5a, 0x57, 0x7f,
  0xde, 0x0d, 0x22, 0x2e, 0x08, 0x22, 0x4b, 0x81, 0xbc, 0xf6, 0x36, 0xfa,
  0x9a, 0x5b, 0x32, 0xab, 0x55, 0x27, 0x7f, 0x17, 0x62, 0xe1, 0x8e, 0x39,
  0x4c, 0xd6, 0xc3, 0x7f, 0xf3, 0xcc, 0x81, 0xf7, 0x46, 0xdc, 0xc9, 0x4e,
  0x1e, 0xf5, 0xb6, 0x16, 0xb6, 0x18, 0xa5, 0x7f, 0xf5, 0xfc, 0x3e, 0x07,
  0x7f, 0xf8, 0xb6, 0xdb, 0xfb, 0x62, 0x7f, 0xf7, 0xa4, 0xc5, 0x4c, 0xc3,
  0x13, 0x2e, 0x7f, 0x8b, 0x33, 0x3b, 0x42, 0xa6, 0x33, 0xe5, 0x52, 0x7e,
  0x3d, 0xe3, 0x12, 0x7f, 0x33, 0x4b, 0x60, 0x13, 0xbb, 0x0d, 0x82, 0x7f,
  0x1e, 0xee, 0xc0, 0x25, 0x81, 0xd6, 0xd9, 0x37, 0x1b, 0x7f, 0x45, 0xd0,
  0xc9, 0x05, 0x68, 0xa9, 0x56, 0xf7, 0xf6, 0x18, 0x5b, 0x7f, 0x2e, 0xf3,
  0x1b, 0xd3, 0x81, 0xf1, 0x2d, 0xe9, 0xdf, 0x4e, 0x4b, 0xb3, 0x15, 0x81,
  0xe6, 0x52, 0x08, 0x0a, 0xe9, 0x14, 0x32, 0x08, 0x09, 0x81, 0x00, 0xef,
  0x00, 0x13, 0xe9, 0x81, 0xf3, 0x0d, 0x06, 0xbc, 0x59, 0xeb, 0xe9, 0xbf,
  0x9b, 0x7f, 0xc6, 0x9a, 0x6e, 0xd1, 0xf0, 0x71, 0x54, 0x30, 0xee, 0x7f,
  0x7f, 0x3f, 0x19, 0x3f, 0xf5, 0x48, 0xd8, 0xfb, 0x18, 0xa3, 0x9c, 0xf3,
  0xe8, 0x02, 0xb6, 0x7f, 0xf0, 0xbb, 0x81, 0xba, 0xfb, 0xa4, 0xf6, 0xf6,
  0x3a, 0x7f, 0x6e, 0x75, 0x9e, 0xf7, 0x15, 0x34, 0x5e, 0xcb, 0x86, 0x81,
  0xbb, 0xda, 0x17, 0x47, 0x0c, 0x35, 0x5c, 0xa3, 0xcc, 0x03, 0x3b, 0x81,
  0x46, 0x24, 0x81, 0x35, 0xcd, 0x2a, 0x03, 0x6d, 0x32, 0xd0, 0xb8, 0x81,
  0x1a, 0xcf, 0xd9, 0x26, 0x51, 0x94, 0x7f, 0xc5, 0x45, 0xea, 0x15, 0x12,
  0x92, 0xf0, 0xff, 0xff, 0x04, 0x00, 0x00, 0x00, 0xc0, 0x00, 0x00, 0x00,
  0x67, 0x52, 0x02, 0x00, 0x59, 0x2f, 0x00, 0x00, 0x80, 0x0a, 0x00, 0x00,
  0x6e, 0x07, 0x00, 0x00, 0xc5, 0x0a, 0x00, 0x00, 0x71, 0x11, 0x00, 0x00,
  0xc2, 0x1c, 0x00, 0x00, 0x13, 0x14, 0x00, 0x00, 0x60, 0x0b, 0x00, 0x00,
  0x98, 0xe0, 0xff, 0xff, 0xcb, 0x5e, 0x00, 0x00, 0xb9, 0x04, 0x00, 0x00,
  0xac, 0x2c, 0x00, 0x00, 0x6f, 0x0a, 0x00, 0x00, 0xac, 0x13, 0x00, 0x00,
  0x64, 0x0c, 0x00, 0x00, 0x89, 0x1a, 0x00, 0x00, 0x8d, 0xfd, 0xff, 0xff,
  0xa3, 0x55, 0x00, 0x00, 0x02, 0x01, 0x00, 0x00, 0x44, 0x10, 0x00, 0x00,
  0x99, 0xfe, 0xff, 0xff, 0x4b, 0x18, 0x00, 0x00, 0xee, 0x19, 0x00, 0x00,
  0x6e, 0x0f, 0x00, 0x00, 0x84, 0xf1, 0xff, 0xff, 0xed, 0x11, 0x00, 0x00,
  0xb6, 0x5f, 0x00, 0x00, 0x46, 0x05, 0x00, 0x00, 0xa9, 0x21, 0x00, 0x00,
  0xc6, 0x04, 0x00, 0x00, 0x8b, 0x2a, 0x00, 0x00, 0x7e, 0x05, 0x00, 0x00,
  0xfe, 0x1c, 0x00, 0x00, 0x7e, 0xfd, 0xff, 0xff, 0x63, 0xfb, 0xff, 0xff,
  0x7e, 0x0c, 0x00, 0x00, 0x1a, 0x07, 0x00, 0x00, 0x66, 0xfe, 0xff, 0xff,
  0xe5, 0x05, 0x00, 0x00, 0x22, 0x4b, 0x00, 0x00, 0xc8, 0xf7, 0xff, 0xff,
  0x20, 0x30, 0x00, 0x00, 0x77, 0x0d, 0x00, 0x00, 0xec, 0x03, 0x00, 0x00,
  0x7c, 0x17, 0x00, 0x00, 0xb1, 0x13, 0x00, 0x00, 0xf7, 0xf6, 0xff, 0xff,
  0x5e, 0xf1, 0xff, 0xff, 0x04, 0x00, 0x00, 0x00, 0xb0, 0x01, 0x00, 0x00,
  0x47, 0x54, 0xc3, 0x27, 0x01, 0x08, 0xb9, 0x21, 0x1b, 0xd1, 0x2b, 0x0e,
  0x09, 0xa5, 0xe3, 0x2a, 0x51, 0x15, 0xd0, 0xfd, 0x59, 0x21, 0xec, 0xff,
  0x56, 0x24, 0x1a, 0x00, 0xc0, 0x17, 0xe3, 0xc0, 0x7f, 0x06, 0x5b, 0x3d,
  0xde, 0x36, 0x60, 0x36, 0xb5, 0x4d, 0xb8, 0xd4, 0x1a, 0x87, 0xdf, 0xed,
  0x51, 0x7f, 0xc5, 0x32, 0x18, 0x25, 0xa2, 0x81, 0x2a, 0x57, 0x7f, 0x18,
  0xf5, 0xf2, 0xf3, 0x07, 0xb3, 0x7f, 0xcb, 0x28, 0x4a, 0x7f, 0x27, 0xf2,
  0x21, 0xfb, 0x15, 0x7f, 0x81, 0x51, 0xd6, 0x81, 0xb8, 0xd4, 0x05, 0x7f,
  0xbd, 0x7f, 0x42, 0x41, 0x81, 0xaa, 0x29, 0xff, 0x03, 0xfc, 0x86, 0x59,
  0x23, 0x34, 0xd0, 0x13, 0x00, 0x10, 0xd0, 0x23, 0x13, 0x04, 0x26, 0x03,
  0x04, 0xa6, 0xf1, 0xf5, 0x39, 0xe6, 0xed, 0xe6, 0x44, 0x26, 0xe5, 0x1f,
  0x44, 0x62, 0x1b, 0x07, 0xe8, 0x24, 0xd9, 0xd9, 0x73, 0x02, 0x7c, 0x39,
  0xeb, 0x43, 0x5c, 0x15, 0xd7, 0x63, 0x1a, 0x41, 0x1b, 0x61, 0x0c, 0xd8,
  0xf3, 0xe8, 0x81, 0x6b, 0x1a, 0x33, 0x37, 0xe2, 0x17, 0x1b, 0xe1, 0x7f,
  0x7f, 0x06, 0xee, 0xc1, 0xda, 0x5b, 0x40, 0xd6, 0x81, 0xfe, 0x26, 0x81,
  0x21, 0x52, 0x1b, 0x16, 0xe8, 0x69, 0x21, 0x1e, 0x6b, 0x7f, 0x2c, 0x39,
  0xbb, 0x10, 0xc5, 0x73, 0x3f, 0x14, 0x5d, 0x92, 0xfe, 0x81, 0xfe, 0x69,
  0x20, 0xbe, 0xff, 0x81, 0x7f, 0x0b, 0x7f, 0xa9, 0x81, 0x7f, 0x0f, 0x53,
  0x98, 0x7f, 0x7f, 0x00, 0x81, 0x5e, 0x1c, 0x7f, 0x29, 0xe8, 0x7f, 0xf5,
  0x81, 0x7f, 0x26, 0xba, 0xb1, 0x2d, 0x81, 0x4a, 0x28, 0xa6, 0x24, 0x77,
  0x7f, 0x29, 0xee, 0x7f, 0x73, 0xaf, 0xfb, 0xf4, 0x67, 0xde, 0x0b, 0x0c,
  0xe3, 0xf4, 0xa8, 0x52, 0xed, 0x7f, 0x42, 0xf3, 0x12, 0x22, 0xe3, 0x36,
  0xe1, 0xf6, 0xe1, 0xed, 0xc6, 0x62, 0x7f, 0xc4, 0x82, 0x03, 0xd1, 0x7c,
  0x10, 0x3b, 0x1e, 0x29, 0x0d, 0x58, 0x42, 0x16, 0x34, 0xf2, 0xf7, 0xa9,
  0xd0, 0x1a, 0xf7, 0x27, 0x3b, 0x37, 0xf3, 0x7f, 0xe9, 0x5f, 0xe8, 0x65,
  0xe3, 0xfb, 0x2c, 0x29, 0xfe, 0x0a, 0xfa, 0xe5, 0x0d, 0xdd, 0x10, 0x14,
  0x29, 0x98, 0xe4, 0x1c, 0x6c, 0x0b, 0xfb, 0xf9, 0xa5, 0x0f, 0xef, 0xde,
  0x19, 0x24, 0x02, 0x06, 0x41, 0x35, 0x46, 0x08, 0x35, 0x0f, 0x7f, 0x14,
  0x05, 0x58, 0x7f, 0x48, 0x27, 0x5e, 0x7f, 0xe7, 0xbf, 0x96, 0xe2, 0x2e,
  0x81, 0x15, 0xd0, 0x3f, 0x98, 0x0f, 0xc2, 0xe4, 0x09, 0x2b, 0xc6, 0x3b,
  0xe6, 0xe0, 0xff, 0x7f, 0xba, 0x41, 0xa7, 0xd8, 0xa1, 0xf8, 0xf2, 0xe4,
  0xf4, 0x49, 0x81, 0xf5, 0x10, 0x7f, 0x5b, 0x12, 0x05, 0xf6, 0x0f, 0x0a,
  0xe9, 0x6e, 0xeb, 0x37, 0xe2, 0x81, 0xcd, 0xdf, 0x81, 0x4a, 0x81, 0x7f,
  0xd7, 0xf8, 0x10, 0x25, 0x0d, 0x0e, 0xfb, 0x05, 0x08, 0xde, 0x01, 0xee,
  0xd9, 0x8a, 0xe9, 0xf9, 0x75, 0xe7, 0x44, 0x08, 0xa4, 0xf5, 0xfa, 0x2f,
  0x1a, 0x16, 0xfa, 0xfb, 0x3b, 0x21, 0x38, 0x0b, 0x46, 0x12, 0x60, 0x1f,
  0x00, 0x6b, 0x71, 0x25, 0x32, 0x5b, 0xf4, 0x3e, 0xd1, 0x76, 0xf1, 0x07,
  0x1a, 0xf3, 0xff, 0xff, 0x04, 0x00, 0x00, 0x00, 0xc0, 0x00, 0x00, 0x00,
  0xbc, 0x04, 0x00, 0x00, 0xf5, 0xdd, 0xff, 0xff, 0x9c, 0x31, 0x00, 0x00,
  0xd5, 0x04, 0x00, 0x00, 0xd9, 0xf4, 0xff, 0xff, 0x6a, 0xd7, 0xff, 0xff,
  0xb8, 0xff, 0xff, 0xff, 0x43, 0x43, 0x00, 0x00, 0x8a, 0x22, 0x00, 0x00,
  0x5e, 0xf0, 0xff, 0xff, 0x4b, 0xd3, 0xff, 0xff, 0x1a, 0xe0, 0xff, 0xff,
  0xa4, 0x00, 0x00, 0x00, 0xfb, 0x5b, 0x00, 0x00, 0xa6, 0x24, 0x00, 0x00,
  0x3e, 0xf9, 0xff, 0xff, 0x8c, 0x21, 0x00, 0x00, 0xf1, 0xda, 0xff, 0xff,
  0x88, 0x05, 0x00, 0x00, 0xf7, 0xff, 0xff, 0xff, 0xd2, 0x5e, 0x00, 0x00,
  0x6f, 0xf0, 0xff, 0xff, 0xd4, 0xf8, 0xff, 0xff, 0x84, 0xfe, 0xff, 0xff,
  0xa1, 0x05, 0x00, 0x00, 0xd3, 0xc9, 0xff, 0xff, 0x75, 0xf8, 0xff, 0xff,
  0x56, 0xe2, 0xff, 0xff, 0xcc, 0x18, 0x00, 0x00, 0xe5, 0x6b, 0xff, 0xff,
  0x4b, 0xe7, 0xff, 0xff, 0x1a, 0x13, 0x00, 0x00, 0xf5, 0x06, 0x00, 0x00,
  0x83, 0xf4, 0xff, 0xff, 0x72, 0xfc, 0xff, 0xff, 0xe2, 0xef, 0xff, 0xff,
  0xf7, 0x26, 0x00, 0x00, 0x2f, 0xe8, 0xff, 0xff, 0x37, 0x03, 0x00, 0x00,
  0x80, 0xaf, 0xff, 0xff, 0xea, 0xeb, 0xff, 0xff, 0x8b, 0x15, 0x00, 0x00,
  0x2c, 0xd1, 0xff, 0xff, 0xd8, 0xf3, 0xff, 0xff, 0x27, 0x15, 0x00, 0x00,
  0x30, 0xf6, 0xff, 0xff, 0xf1, 0x2c, 0x00, 0x00, 0x45, 0xeb, 0xff, 0xff,
  0xe6, 0xf3, 0xff, 0xff, 0x04, 0x00, 0x00, 0x00, 0x80, 0x01, 0x00, 0x00,
  0x7f, 0xee, 0x0f, 0xdf, 0x16, 0x30, 0x03, 0x27, 0x64, 0xbd, 0x3e, 0x13,
  0xdb, 0x36, 0x0f, 0xdc, 0x02, 0xf2, 0xf1, 0xe2, 0x00, 0xc9, 0x09, 0xed,
  0xd4, 0xe2, 0xd3, 0xd5, 0xe3, 0x4a, 0xdf, 0x2a, 0x17, 0xd5, 0x09, 0xd4,
  0x47, 0xc1, 0xd3, 0xfe, 0x21, 0xe1, 0xbf, 0x01, 0x2c, 0xe0, 0x2a, 0xe8,
  0x2c, 0xfe, 0xf8, 0x2f, 0x30, 0x3a, 0x0a, 0x22, 0x36, 0xb6, 0xfd, 0x0d,
  0x2b, 0x12, 0xe4, 0xf7, 0xdc, 0xdf, 0xc7, 0xf1, 0xf4, 0xde, 0x2d, 0x4d,
  0x06, 0xd7, 0xee, 0x1e, 0xdf, 0x42, 0xbd, 0x7f, 0xef, 0x20, 0xe6, 0xdd,
  0xca, 0xf4, 0xfa, 0xe9, 0xcc, 0xdf, 0xe2, 0x1a, 0x08, 0xf5, 0xfe, 0xb9,
  0xc2, 0xf3, 0xa6, 0x25, 0xb9, 0xec, 0x0a, 0x2a, 0x88, 0x99, 0x92, 0xd0,
  0xe2, 0x21, 0x81, 0xf3, 0x52, 0x90, 0x36, 0xfb, 0x66, 0x54, 0xd5, 0x08,
  0x4d, 0x61, 0x0c, 0x9b, 0xcf, 0x14, 0x39, 0x14, 0xd8, 0x25, 0x47, 0x9f,
  0x46, 0xfb, 0x5b, 0x4d, 0xb2, 0x5e, 0x26, 0xf9, 0xab, 0x38, 0xc3, 0x38,
  0x12, 0xef, 0xeb, 0x26, 0xe0, 0x07, 0xee, 0x48, 0x5b, 0x78, 0x81, 0xf1,
  0x1f, 0xe4, 0xeb, 0x5f, 0xae, 0x01, 0xfc, 0x2a, 0xd7, 0x10, 0x48, 0x19,
  0x13, 0x18, 0xb0, 0x36, 0xdd, 0x23, 0xbe, 0xe6, 0x13, 0x1c, 0x29, 0x09,
  0x3e, 0xfb, 0x27, 0xfa, 0xc4, 0x58, 0x4d, 0x15, 0x11, 0xef, 0xd6, 0xe9,
  0xed, 0xbf, 0x16, 0xcb, 0xfa, 0x41, 0xe1, 0xc9, 0x01, 0xda, 0x43, 0x1e,
  0xc6, 0xf6, 0xf0, 0x16, 0x3e, 0x0c, 0xe0, 0x30, 0xd3, 0xf5, 0x56, 0xe5,
  0xa5, 0xf8, 0x0a, 0x14, 0x20, 0xd9, 0x0d, 0x32, 0xdf, 0x2b, 0xf6, 0x38,
  0xdd, 0x2b, 0xf8, 0x13, 0xe9, 0x36, 0xd8, 0x29, 0x7f, 0x30, 0x02, 0x03,
  0xbe, 0xbd, 0x45, 0x81, 0xe3, 0x10, 0xdc, 0xcb, 0xfa, 0x48, 0xce, 0x3a,
  0xac, 0x1c, 0x39, 0x09, 0x4a, 0x32, 0x42, 0x18, 0x28, 0x02, 0xef, 0xb3,
  0x1f, 0xb3, 0x0d, 0xd6, 0xfd, 0xc8, 0x32, 0xab, 0xfe, 0xdc, 0x3c, 0x0a,
  0xe2, 0x29, 0x21, 0x44, 0x62, 0x1f, 0x0a, 0xef, 0xfa, 0xf9, 0xec, 0x1a,
  0xcd, 0xc1, 0x35, 0x16, 0xc7, 0xb8, 0xfe, 0xc4, 0x8b, 0x1c, 0x8d, 0x2b,
  0x17, 0xe3, 0x39, 0x0c, 0xde, 0x1e, 0x0e, 0x7f, 0xf7, 0x04, 0x67, 0x27,
  0xa7, 0xf6, 0x36, 0x11, 0x12, 0xe0, 0xd6, 0xbe, 0xea, 0x31, 0x53, 0xa0,
  0xd3, 0x5b, 0x51, 0xeb, 0xc9, 0x37, 0x4c, 0xbe, 0xf8, 0xdc, 0xd7, 0x0e,
  0x0e, 0x04, 0x0f, 0xf5, 0x0b, 0x21, 0xcf, 0xd6, 0x81, 0xda, 0x5e, 0x1a,
  0x09, 0xdd, 0x23, 0x09, 0x0a, 0x2b, 0x0c, 0xe3, 0xc4, 0x0e, 0xf1, 0xe0,
  0x31, 0x16, 0xc8, 0x07, 0xf0, 0xf7, 0xd0, 0xd8, 0x94, 0xc3, 0xd4, 0xf8,
  0x40, 0xe1, 0xe7, 0xff, 0x2f, 0xf7, 0x36, 0xe5, 0x07, 0xd2, 0x1f, 0x12,
  0x72, 0xf5, 0xff, 0xff, 0x04, 0x00, 0x00, 0x00, 0x20, 0x00, 0x00, 0x00,
  0x8c, 0xe0, 0xff, 0xff, 0x3d, 0x00, 0x00, 0x00, 0xa7, 0x0a, 0x00, 0x00,
  0x6f, 0xd0, 0xff, 0xff, 0x86, 0xfd, 0xff, 0xff, 0x2b, 0xec, 0xff, 0xff,
  0x7d, 0x26, 0x00, 0x00, 0x52, 0x30, 0x00, 0x00, 0x9e, 0xf5, 0xff, 0xff,
  0x04, 0x00, 0x00, 0x00, 0x80, 0x01, 0x00, 0x00, 0xe9, 0x15, 0x7f, 0xf8,
  0xf5, 0x2b, 0x00, 0xb6, 0x61, 0xb3, 0x3f, 0xab, 0xf1, 0xb6, 0x7f, 0x13,
  0x4a, 0x33, 0x44, 0xa8, 0xc6, 0x23, 0x7f, 0xd5, 0x01, 0x2b, 0x08, 0xf0,
  0x08, 0xb9, 0x7f, 0x15, 0x7f, 0xdf, 0xcc, 0xe1, 0x89, 0xb1, 0xe7, 0x66,
  0x22, 0x3d, 0x7f, 0xf3, 0x23, 0xe1, 0x1b, 0xce, 0x6e, 0x7d, 0xf2, 0x7f,
  0xa0, 0x19, 0x0a, 0x77, 0xdb, 0xfd, 0x04, 0x1e, 0x1a, 0x93, 0x81, 0xe6,
  0x5d, 0x52, 0xdd, 0x58, 0xb2, 0x0c, 0x81, 0xd5, 0x7f, 0xe6, 0xd5, 0x2b,
  0x06, 0xd4, 0x13, 0x9f, 0x46, 0x17, 0xfa, 0x12, 0xe9, 0x7f, 0x22, 0x0d,
  0x7f, 0xf8, 0xf5, 0x85, 0x55, 0xb3, 0xbb, 0x61, 0xc6, 0x6f, 0x41, 0xe4,
  0x02, 0x33, 0xb2, 0x7f, 0x6d, 0xed, 0xa7, 0xff, 0x29, 0xbb, 0x16, 0x81,
  0x62, 0x26, 0x03, 0xf4, 0x81, 0x18, 0xbb, 0xfb, 0x24, 0xf5, 0x81, 0xc9,
  0x95, 0xc9, 0x64, 0x7d, 0xe9, 0xb1, 0x6f, 0xfb, 0x7f, 0xd1, 0xbe, 0xe9,
  0x17, 0xe6, 0x44, 0xec, 0x7f, 0xd7, 0xcd, 0xef, 0x79, 0xbe, 0x7f, 0x23,
  0xf0, 0x35, 0xdb, 0xe3, 0x3c, 0x38, 0x2e, 0xcd, 0xcd, 0x81, 0x16, 0xea,
  0x30, 0xdc, 0x42, 0x7f, 0xfe, 0xbc, 0x97, 0x6c, 0x56, 0xf7, 0xc0, 0x81,
  0x3b, 0xc0, 0xfe, 0x74, 0xc3, 0x85, 0xaf, 0xca, 0x28, 0xd3, 0x7f, 0xd0,
  0xe6, 0x0d, 0x25, 0xce, 0x9b, 0x81, 0x02, 0xdb, 0x7f, 0x00, 0x33, 0x28,
  0xfd, 0xeb, 0x9b, 0x3d, 0x7f, 0x21, 0xd1, 0xa3, 0x07, 0x12, 0xe3, 0x63,
  0x8e, 0xea, 0x27, 0x81, 0x63, 0xf5, 0xca, 0x97, 0x67, 0x7f, 0xfb, 0xce,
  0x0c, 0x41, 0x23, 0x03, 0x0e, 0x7f, 0x0b, 0x0f, 0xf2, 0xd3, 0xe7, 0x79,
  0x69, 0x2b, 0x5f, 0x7f, 0x19, 0xc3, 0x8e, 0x4e, 0x7f, 0x99, 0xa8, 0x7b,
  0x2b, 0xfd, 0xb6, 0x71, 0x56, 0xae, 0x15, 0x2a, 0xbb, 0xa3, 0x81, 0x2c,
  0x81, 0xb6, 0x2d, 0xa2, 0x36, 0xc8, 0xd5, 0xb2, 0x22, 0x09, 0x0f, 0x19,
  0x11, 0xc3, 0x7f, 0x33, 0xc2, 0x55, 0x7f, 0xb6, 0x68, 0xa4, 0x8f, 0x5e,
  0xb5, 0x20, 0x18, 0x79, 0xf6, 0x7f, 0x20, 0xf5, 0x49, 0x14, 0xe9, 0x81,
  0x37, 0x04, 0x10, 0x1b, 0x20, 0x37, 0xf1, 0x10, 0xae, 0x7f, 0x45, 0x30,
  0xe6, 0xb0, 0x17, 0x76, 0x20, 0x3a, 0x00, 0x7f, 0x12, 0xf2, 0x81, 0x1e,
  0x05, 0xe7, 0xef, 0x32, 0x56, 0x00, 0x87, 0xf5, 0xdc, 0x4f, 0xbb, 0x7f,
  0x21, 0x12, 0x20, 0xd8, 0x87, 0x81, 0xef, 0x11, 0xb7, 0x28, 0xa6, 0x5c,
  0xfe, 0x5a, 0xe8, 0x81, 0xf2, 0xfa, 0xea, 0x81, 0xe7, 0xf9, 0xef, 0xce,
  0x42, 0x0d, 0x19, 0x36, 0x1e, 0x7f, 0xc7, 0x1d, 0x0a, 0x43, 0xe9, 0x0c,
  0x7f, 0xe6, 0xc0, 0xed, 0x2d, 0xb4, 0x09, 0x7f, 0x4b, 0x26, 0xd3, 0x4d,
  0xea, 0xa7, 0x2a, 0xec, 0x7f, 0x18, 0x29, 0x09, 0x2a, 0xf7, 0xff, 0xff,
  0x04, 0x00, 0x00, 0x00, 0xc0, 0x00, 0x00, 0x00, 0xb8, 0x09, 0x00, 0x00,
  0x8c, 0xf9, 0xff, 0xff, 0x03, 0x15, 0x00, 0x00, 0xef, 0x07, 0x00, 0x00,
  0x7a, 0x11, 0x00, 0x00, 0xe1, 0xff, 0xff, 0xff, 0xdb, 0x09, 0x00, 0x00,
  0x31, 0x13, 0x00, 0x00, 0xc1, 0xf7, 0xff, 0xff, 0x14, 0xfb, 0xff, 0xff,
  0x0c, 0xfb, 0xff, 0xff, 0xd8, 0x2b, 0x00, 0x00, 0xa6, 0x12, 0x00, 0x00,
  0xb1, 0x0c, 0x00, 0x00, 0x3d, 0x19, 0x00, 0x00, 0x87, 0xe7, 0xff, 0xff,
  0xc7, 0xf7, 0xff, 0xff, 0x2d, 0x1f, 0x00, 0x00, 0xfc, 0x0b, 0x00, 0x00,
  0x51, 0x15, 0x00, 0x00, 0xd0, 0x1b, 0x00, 0x00, 0x71, 0x68, 0x00, 0x00,
  0x6f, 0x94, 0x00, 0x00, 0xf9, 0x03, 0x00, 0x00, 0x53, 0xf6, 0xff, 0xff,
  0xdc, 0x07, 0x00, 0x00, 0xb1, 0xfc, 0xff, 0xff, 0x85, 0xfa, 0xff, 0xff,
  0x32, 0x0c, 0x00, 0x00, 0xdf, 0x0a, 0x00, 0x00, 0x92, 0x20, 0x00, 0x00,
  0x1b, 0x28, 0x00, 0x00, 0xc1, 0xff, 0xff, 0xff, 0xab, 0x00, 0x00, 0x00,
  0xe3, 0x2d, 0x00, 0x00, 0x7b, 0x10, 0x00, 0x00, 0x69, 0x1b, 0x00, 0x00,
  0x2c, 0x0a, 0x00, 0x00, 0xd5, 0x05, 0x00, 0x00, 0xd7, 0xf6, 0xff, 0xff,
  0x30, 0x14, 0x00, 0x00, 0x33, 0xf3, 0xff, 0xff, 0x4d, 0x23, 0x00, 0x00,
  0x8a, 0x00, 0x00, 0x00, 0xa2, 0x01, 0x00, 0x00, 0x17, 0x0b, 0x00, 0x00,
  0xd1, 0xf6, 0xff, 0xff, 0xc4, 0x16, 0x00, 0x00, 0xf6, 0xf7, 0xff, 0xff,
  0x04, 0x00, 0x00, 0x00, 0x00, 0x06, 0x00, 0x00, 0xc5, 0xcb, 0x50, 0xf5,
  0x54, 0xde, 0xa6, 0x8f, 0x3c, 0x9b, 0x94, 0xf5, 0x23, 0x02, 0xcb, 0x2e,
  0xc4, 0xcc, 0xb7, 0xb6, 0xb9, 0x85, 0xec, 0x59, 0x8e, 0xff, 0x32, 0xcf,
  0x65, 0xfd, 0xe3, 0xa6, 0x39, 0xba, 0x8f, 0x2b, 0x81, 0xa0, 0xa1, 0x14,
  0x40, 0xa1, 0x8a, 0x48, 0x31, 0x91, 0x69, 0xd8, 0xb2, 0x08, 0xc3, 0x08,
  0xe5, 0x52, 0x3c, 0x10, 0x60, 0x86, 0x9b, 0x66, 0x52, 0xdd, 0x24, 0x57,
  0x1e, 0xd8, 0x23, 0x7e, 0xe1, 0x00, 0x21, 0x2c, 0x34, 0x21, 0xae, 0x70,
  0x21, 0x17, 0x60, 0xcb, 0x0d, 0x75, 0x01, 0x22, 0x35, 0x49, 0xfe, 0xc7,
  0xd1, 0x20, 0xee, 0x81, 0xde, 0x27, 0xd6, 0xba, 0x16, 0x0c, 0xcf, 0x62,
  0xf7, 0xcc, 0x69, 0x5f, 0xb3, 0x3a, 0xdf, 0x6c, 0x66, 0xe9, 0x58, 0xae,
  0x81, 0xe7, 0x20, 0x3d, 0xb4, 0xf7, 0x66, 0x24, 0xfa, 0x5a, 0x38, 0x10,
  0xd5, 0x5c, 0x4a, 0x62, 0x93, 0xfc, 0xb3, 0xa2, 0xb2, 0x65, 0x6e, 0xec,
  0xa0, 0xd1, 0x11, 0xda, 0xb1, 0x71, 0xdc, 0xa7, 0x37, 0xf7, 0x19, 0xdd,
  0xad, 0x23, 0x85, 0x12, 0x24, 0x0c, 0x38, 0xf1, 0x45, 0x51, 0x34, 0xf7,
  0x5e, 0x4c, 0xba, 0xfe, 0x5c, 0x9a, 0xaf, 0x81, 0xdb, 0x86, 0xa8, 0x5c,
  0x1a, 0x8f, 0x40, 0xf4, 0xbd, 0xd1, 0xdd, 0xdf, 0x97, 0xdb, 0x13, 0x20,
  0xd5, 0x97, 0x91, 0xfb, 0x37, 0x0b, 0xc2, 0x9d, 0x2a, 0x62, 0xf6, 0x2c,
  0xe1, 0xe0, 0x14, 0x04, 0x3e, 0x53, 0xf3, 0x28, 0x0a, 0xd7, 0xea, 0xb5,
  0xfc, 0xef, 0xb4, 0x06, 0x5a, 0x9d, 0x49, 0x10, 0xed, 0xf0, 0x4f, 0xc3,
  0xc6, 0x17, 0xb3, 0xc1, 0x4c, 0x66, 0x02, 0x91, 0xc6, 0xf0, 0x81, 0x29,
  0xc0, 0xc4, 0xad, 0xb0, 0x10, 0x5a, 0x17, 0x2b, 0x44, 0x9f, 0x4e, 0x56,
  0x31, 0x99, 0x2d, 0x3a, 0x6e, 0x81, 0xff, 0xc4, 0x25, 0x55, 0x2b, 0x39,
  0xf2, 0x38, 0xbc, 0x63, 0x2a, 0x36, 0x0f, 0xf6, 0xb3, 0xd9, 0xcb, 0xb4,
  0x41, 0x2b, 0x12, 0xaf, 0xb3, 0x10, 0xc9, 0x15, 0x9b, 0xea, 0x36, 0x1e,
  0xbe, 0xe6, 0x29, 0x42, 0xe0, 0x1a, 0x1c, 0xc1, 0x01, 0xd3, 0x59, 0x38,
  0xa1, 0xb9, 0xef, 0x2d, 0xe3, 0xaa, 0xf4, 0x9d, 0x3b, 0x25, 0x59, 0x84,
  0x2a, 0xf1, 0xf2, 0x4f, 0xa9, 0x81, 0x55, 0x27, 0xbf, 0xa2, 0xe8, 0xba,
  0xd7, 0x87, 0x1a, 0xa8, 0x9c, 0x85, 0xc5, 0x8f, 0xe6, 0x13, 0x8c, 0x3b,
  0x3e, 0x25, 0x05, 0xe3, 0x86, 0x54, 0xb0, 0xc7, 0x64, 0x32, 0xdf, 0xda,
  0xbd, 0x70, 0xfc, 0x03, 0x75, 0xeb, 0x9d, 0x0f, 0x46, 0x9c, 0x36, 0x5c,
  0xf3, 0x12, 0xfe, 0x78, 0x42, 0x28, 0xfa, 0x61, 0xc0, 0x72, 0x07, 0x39,
  0xc1, 0x76, 0xed, 0x2c, 0xf6, 0x23, 0x4a, 0x6c, 0x97, 0x62, 0x02, 0xe4,
  0x6b, 0xbb, 0x5b, 0x28, 0x33, 0xfe, 0x5d, 0x81, 0x14, 0x3d, 0xd1, 0xa5,
  0x30, 0x1a, 0xa5, 0xe2, 0xeb, 0x3a, 0x39, 0x57, 0xf1, 0xe6, 0xa8, 0xbe,
  0x1f, 0x51, 0xc1, 0x02, 0x0b, 0xe6, 0x47, 0x52, 0x91, 0x52, 0x4c, 0x63,
  0xaf, 0xfa, 0xb3, 0x5c, 0x7f, 0xd0, 0x20, 0xf2, 0x68, 0xf8, 0xe3, 0x50,
  0x42, 0x46, 0x96, 0xb2, 0xfe, 0xe7, 0xfb, 0x6e, 0xf9, 0x11, 0x64, 0x1e,
  0x4a, 0x88, 0xc0, 0x81, 0x1d, 0x50, 0xeb, 0x32, 0xd8, 0xb1, 0x8f, 0xd8,
  0x24, 0xfb, 0x93, 0xad, 0xf8, 0x5a, 0x8b, 0x87, 0x71, 0xf0, 0x0e, 0x10,
  0xe6, 0xb7, 0xa2, 0x5b, 0x5a, 0xef, 0x11, 0xde, 0xac, 0x02, 0xd0, 0xd9,
  0x26, 0xc7, 0x29, 0xcd, 0x46, 0x14, 0xc0, 0x38, 0xbc, 0x2e, 0x4d, 0xd4,
  0xfc, 0x54, 0x66, 0x1a, 0x2d, 0x03, 0x12, 0xc9, 0x5c, 0x35, 0xee, 0x1c,
  0xae, 0x3c, 0xb2, 0xd8, 0xfd, 0x19, 0x27, 0xd8, 0x28, 0x36, 0x81, 0xae,
  0xec, 0x4c, 0xb5, 0xc8, 0x1e, 0x5a, 0x63, 0x3d, 0xe0, 0x0f, 0xee, 0x1f,
  0xee, 0x70, 0xaa, 0xbe, 0xb2, 0xd3, 0xf2, 0xc1, 0x55, 0xf7, 0xfb, 0x6e,
  0x7c, 0x30, 0x4a, 0x25, 0x7a, 0x42, 0xb8, 0x6c, 0x0c, 0xa8, 0x27, 0xd9,
  0x83, 0x9f, 0x3e, 0x32, 0x2d, 0x4e, 0x16, 0xa8, 0xad, 0xb6, 0xc4, 0x4b,
  0x62, 0x0b, 0x1a, 0xf8, 0x81, 0xcb, 0x3d, 0x33, 0xc8, 0x56, 0xf1, 0xce,
  0xf5, 0x7c, 0xbe, 0xe7, 0xda, 0xcc, 0xa0, 0x9c, 0xfa, 0x14, 0xdf, 0x06,
  0x40, 0x06, 0xf6, 0x1c, 0xd2, 0x11, 0xe7, 0x08, 0xef, 0xfb, 0x27, 0xd9,
  0x81, 0xea, 0xdc, 0xd0, 0x1a, 0xfb, 0x09, 0x4d, 0xd9, 0xe6, 0x2c, 0xb9,
  0x4c, 0x14, 0xe5, 0x53, 0xac, 0xda, 0xe8, 0x0d, 0xfe, 0xd5, 0xfa, 0x1d,
  0x53, 0x2c, 0xb7, 0xd1, 0xe9, 0xc8, 0xd9, 0x43, 0x3d, 0xca, 0x4b, 0x48,
  0x46, 0x4f, 0x44, 0x30, 0x36, 0xac, 0x09, 0xee, 0x49, 0x2b, 0x34, 0xef,
  0x81, 0xd3, 0xd2, 0x1a, 0x38, 0xf2, 0x4f, 0xeb, 0xde, 0x25, 0xeb, 0x11,
  0xd3, 0xcf, 0x39, 0x21, 0x00, 0x4f, 0xf9, 0x1f, 0xcb, 0xf5, 0x1a, 0x31,
  0xdf, 0x40, 0xe1, 0xf4, 0xe4, 0x16, 0xf8, 0xe3, 0xb3, 0x96, 0x51, 0x44,
  0x47, 0xdd, 0x01, 0x94, 0xb5, 0xc1, 0x3c, 0x40, 0xed, 0xa8, 0xaf, 0xc4,
  0xa0, 0xbd, 0x00, 0x17, 0xde, 0x1b, 0xf8, 0x3e, 0x8e, 0xc4, 0xbe, 0x1c,
  0xa8, 0x97, 0xb2, 0x23, 0x3c, 0xf6, 0xe0, 0x06, 0x51, 0x70, 0x26, 0x97,
  0x00, 0xa4, 0x1e, 0x38, 0x32, 0x81, 0x21, 0xa0, 0xf6, 0xcf, 0xcd, 0x24,
  0x2d, 0xa0, 0x17, 0x8d, 0x0f, 0xe6, 0xa5, 0xe7, 0x3c, 0xeb, 0x8f, 0x81,
  0x47, 0xf0, 0x93, 0xf8, 0x0c, 0xf2, 0x23, 0x44, 0x21, 0x1a, 0x1d, 0x2d,
  0xf4, 0x10, 0x17, 0x87, 0xfa, 0xeb, 0xab, 0xe1, 0xa7, 0x42, 0x40, 0x9e,
  0xee, 0x43, 0xbc, 0xde, 0xfd, 0xa7, 0xba, 0xa2, 0xe3, 0x16, 0x40, 0xd1,
  0x17, 0x47, 0xcd, 0x15, 0x10, 0x30, 0xb8, 0x32, 0xeb, 0xe6, 0xd7, 0xc9,
  0x7f, 0x35, 0x31, 0x25, 0x3f, 0x32, 0xe9, 0x18, 0xd7, 0x1b, 0xf3, 0x25,
  0xae, 0xfc, 0x1c, 0x02, 0xde, 0x28, 0x1f, 0x22, 0xe8, 0x1d, 0xd6, 0xcd,
  0x06, 0xd0, 0x2d, 0x55, 0x2a, 0x41, 0x4d, 0x04, 0xf2, 0x88, 0x0a, 0x41,
  0xf1, 0xa3, 0xe7, 0xbb, 0x48, 0x9a, 0x2d, 0x1e, 0x5a, 0x12, 0xb0, 0x43,
  0xfb, 0x10, 0x3a, 0x60, 0xc3, 0xed, 0xf4, 0xed, 0x30, 0x43, 0x9a, 0x17,
  0x6b, 0xee, 0xde, 0x3f, 0xc2, 0xf7, 0x19, 0xf0, 0xcd, 0x4a, 0xb2, 0xfe,
  0xbe, 0x11, 0xde, 0xcc, 0xee, 0xfc, 0x2c, 0x81, 0xca, 0x7c, 0x65, 0xdc,
  0xf3, 0xb2, 0xa3, 0xf9, 0xec, 0x5b, 0xbf, 0xda, 0xd1, 0x2f, 0x28, 0xdc,
  0x46, 0xf0, 0x2d, 0xe9, 0x47, 0xdb, 0x19, 0xc9, 0x0b, 0xab, 0x30, 0x5d,
  0x0c, 0x0c, 0x01, 0x1b, 0x7f, 0xfd, 0x9f, 0xc1, 0xe9, 0x1d, 0xf9, 0x39,
  0xd9, 0x03, 0xda, 0x29, 0xa4, 0x0a, 0x16, 0x13, 0x07, 0x14, 0x36, 0x18,
  0x26, 0xb0, 0x49, 0x43, 0x48, 0xc3, 0x11, 0xec, 0xa4, 0x13, 0xc6, 0x2a,
  0x7f, 0x9d, 0x55, 0x27, 0xe4, 0x3a, 0xc6, 0x00, 0x3a, 0xb3, 0x18, 0xbd,
  0xa9, 0x94, 0xbf, 0x1c, 0x43, 0xb2, 0x12, 0xf5, 0xfd, 0xbb, 0xc8, 0xa1,
  0x1b, 0x92, 0xaf, 0x01, 0xaf, 0x11, 0x3a, 0xa8, 0xeb, 0x3d, 0x37, 0x50,
  0x96, 0x50, 0x01, 0x2b, 0xfc, 0x09, 0x97, 0xf2, 0xe3, 0x4d, 0x17, 0xa5,
  0xc3, 0xca, 0xad, 0xd1, 0x05, 0xc1, 0xa3, 0xa8, 0x3b, 0xa1, 0x91, 0x1e,
  0x05, 0xfb, 0xc5, 0x61, 0x5f, 0x1e, 0xdf, 0x27, 0x19, 0xcd, 0xdb, 0x81,
  0x96, 0xcf, 0x95, 0x9a, 0xd1, 0xb0, 0xac, 0x5b, 0x39, 0x29, 0x3d, 0xb3,
  0x52, 0xc0, 0x48, 0x0f, 0x03, 0xb5, 0xc6, 0x1f, 0x0f, 0x12, 0xde, 0xc6,
  0x81, 0xe5, 0x13, 0xfb, 0x5c, 0xdb, 0x34, 0xc8, 0x36, 0xc4, 0xc9, 0x3c,
  0x19, 0x0c, 0xf8, 0xf4, 0xea, 0x17, 0xbc, 0xa8, 0x57, 0x54, 0xaa, 0xe3,
  0x02, 0x11, 0x16, 0xdd, 0xae, 0xb9, 0xb3, 0x36, 0x06, 0xce, 0xa8, 0x8d,
  0x4e, 0xb5, 0x54, 0x1b, 0xa9, 0x51, 0xbb, 0x8a, 0x50, 0x9a, 0x89, 0xaa,
  0x11, 0x35, 0x88, 0xaf, 0x37, 0xa3, 0x04, 0x03, 0x56, 0xfb, 0x82, 0x5d,
  0xb0, 0xa8, 0xbc, 0x81, 0x18, 0x1f, 0xf7, 0xf2, 0xf2, 0xe7, 0xaf, 0x94,
  0xf9, 0xdf, 0xe8, 0x4b, 0x33, 0x84, 0x51, 0xd3, 0x22, 0x9b, 0x0c, 0x3c,
  0x5e, 0x9e, 0x18, 0xac, 0x40, 0xa0, 0x4b, 0x40, 0x20, 0x98, 0x1a, 0xf1,
  0x01, 0xe1, 0xa1, 0x61, 0x5e, 0xbd, 0x58, 0xf1, 0x01, 0x01, 0x21, 0x19,
  0x52, 0x39, 0x3d, 0xe7, 0xb4, 0x33, 0x1a, 0x22, 0x57, 0x05, 0xa8, 0x09,
  0xaf, 0x17, 0x0b, 0x81, 0xc2, 0xb2, 0x56, 0x06, 0xad, 0xbd, 0xa5, 0xc8,
  0xbc, 0xa1, 0xd2, 0xbc, 0x40, 0x51, 0x3a, 0x26, 0x6d, 0x29, 0xe5, 0x9c,
  0x81, 0x26, 0x18, 0xdb, 0x5e, 0xbf, 0xce, 0xf0, 0x3c, 0xec, 0x1b, 0x29,
  0x69, 0x3b, 0x04, 0xd4, 0xde, 0x0e, 0x32, 0x19, 0xd1, 0xb6, 0x3b, 0xec,
  0xc7, 0xbe, 0x59, 0xe1, 0x0d, 0xe3, 0x1b, 0x30, 0xa9, 0xad, 0xb9, 0xf4,
  0x44, 0xc3, 0xb8, 0x2c, 0x29, 0x95, 0xc9, 0x0a, 0x3e, 0xf0, 0xad, 0xee,
  0x81, 0x2b, 0x13, 0xae, 0x39, 0x3c, 0xee, 0xdb, 0x15, 0xda, 0x93, 0x0a,
  0x43, 0xc3, 0x17, 0x5a, 0x26, 0xab, 0x24, 0x31, 0x44, 0xca, 0xef, 0xef,
  0xc1, 0x55, 0xac, 0xeb, 0x41, 0x1e, 0x25, 0x0a, 0x3f, 0x06, 0x0b, 0xff,
  0xcb, 0x2b, 0xfa, 0xff, 0xdb, 0xf1, 0x57, 0x34, 0xed, 0xf9, 0x0c, 0xe8,
  0x7f, 0x26, 0x01, 0xe2, 0x0a, 0x2e, 0x3f, 0x02, 0x3a, 0x21, 0x22, 0x3b,
  0x04, 0x14, 0xdd, 0x01, 0x13, 0xe2, 0xdf, 0xf2, 0xef, 0x3c, 0x04, 0x2c,
  0xd4, 0x25, 0x3b, 0x25, 0x1e, 0x3f, 0x25, 0x65, 0x45, 0x32, 0x07, 0xdb,
  0xc7, 0xfc, 0xd7, 0x16, 0x1b, 0x6c, 0x38, 0xe4, 0xfe, 0x5a, 0x4b, 0xeb,
  0x75, 0x29, 0x4e, 0xe2, 0xdc, 0x34, 0x28, 0xfb, 0xc6, 0x2d, 0xf8, 0x14,
  0x2a, 0x1c, 0x16, 0x18, 0x70, 0x39, 0xeb, 0x02, 0xf7, 0xf6, 0xe1, 0x51,
  0xe3, 0xfe, 0x4f, 0x4b, 0x63, 0x39, 0x50, 0x7f, 0x3f, 0xe4, 0x39, 0x10,
  0x81, 0xb4, 0x99, 0xa5, 0xdd, 0x97, 0x29, 0x27, 0xa0, 0x9b, 0xef, 0x44,
  0x49, 0x4d, 0xae, 0x2b, 0xd0, 0xfd, 0x87, 0xa7, 0x83, 0x31, 0x9b, 0xb5,
  0xa5, 0xac, 0xe7, 0xd7, 0x8b, 0xf6, 0x2f, 0x2f, 0xf8, 0x8d, 0xc4, 0x05,
  0x46, 0x11, 0x99, 0x17, 0x91, 0xdf, 0xff, 0x13, 0x68, 0x71, 0x5f, 0x11,
  0xb4, 0x51, 0x81, 0x17, 0x4e, 0x39, 0xc0, 0xbe, 0x5f, 0xe3, 0xd5, 0xff,
  0x01, 0x7d, 0x2a, 0xde, 0xba, 0xf9, 0x5b, 0x10, 0xdf, 0x07, 0x02, 0x0c,
  0x92, 0xec, 0x6b, 0x03, 0x5d, 0x4d, 0xca, 0xf5, 0x0e, 0x64, 0x02, 0x73,
  0x2d, 0x4f, 0xff, 0x7c, 0x02, 0x75, 0xd8, 0x17, 0x4c, 0xf3, 0xff, 0x31,
  0xcb, 0x3d, 0xd9, 0x15, 0x59, 0x1f, 0x21, 0x05, 0xd0, 0x3d, 0x42, 0x04,
  0x55, 0x48, 0x65, 0xcf, 0x31, 0xe1, 0xe3, 0x19, 0xbb, 0x24, 0x0e, 0x6c,
  0xfe, 0xc0, 0xdf, 0x1e, 0x10, 0xd2, 0xd1, 0x0a, 0x34, 0x13, 0x1d, 0x28,
  0x59, 0xc5, 0x2f, 0x7f, 0x6e, 0x0b, 0x65, 0x60, 0x40, 0xa1, 0x11, 0x4c,
  0x1b, 0x2d, 0xb5, 0x92, 0xd3, 0xe6, 0xa7, 0x9d, 0x4a, 0x81, 0xc2, 0x53,
  0xeb, 0x9d, 0x14, 0x1c, 0x29, 0x0f, 0xd2, 0x51, 0x18, 0x82, 0x20, 0x11,
  0xa9, 0xaa, 0x19, 0x53, 0x0c, 0x01, 0x99, 0xe7, 0x48, 0xcf, 0xac, 0x83,
  0x24, 0xae, 0xd2, 0x15, 0xf7, 0xc1, 0xcf, 0x09, 0x02, 0xfe, 0xff, 0xff,
  0x04, 0x00, 0x00, 0x00, 0x80, 0x00, 0x00, 0x00, 0x0b, 0xfc, 0xff, 0xff,
  0x3f, 0x01, 0x00, 0x00, 0x39, 0x01, 0x00, 0x00, 0x29, 0xfc, 0xff, 0xff,
  0x86, 0xfd, 0xff, 0xff, 0x43, 0x01, 0x00, 0x00, 0x4c, 0xfc, 0xff, 0xff,
  0x09, 0x01, 0x00, 0x00, 0x8d, 0xfe, 0xff, 0xff, 0x9a, 0xfd, 0xff, 0xff,
  0xaa, 0x00, 0x00, 0x00, 0x69, 0x01, 0x00, 0x00, 0x98, 0x00, 0x00, 0x00,
  0x03, 0x01, 0x00, 0x00, 0x9f, 0xff, 0xff, 0xff, 0x2d, 0xfa, 0xff, 0xff,
  0x31, 0xff, 0xff, 0xff, 0xae, 0xfd, 0xff, 0xff, 0xb5, 0xff, 0xff, 0xff,
  0x5e, 0xfd, 0xff, 0xff, 0x31, 0xfc, 0xff, 0xff, 0x98, 0x00, 0x00, 0x00,
  0x2c, 0xfb, 0xff, 0xff, 0x2f, 0x01, 0x00, 0x00, 0xb0, 0x00, 0x00, 0x00,
  0x8d, 0xff, 0xff, 0xff, 0x5f, 0x02, 0x00, 0x00, 0x9b, 0x08, 0x00, 0x00,
  0xb0, 0xfb, 0xff, 0xff, 0xa3, 0x04, 0x00, 0x00, 0xab, 0x07, 0x00, 0x00,
  0x03, 0xfc, 0xff, 0xff, 0x8e, 0xfe, 0xff, 0xff, 0x04, 0x00, 0x00, 0x00,
  0x40, 0x00, 0x00, 0x00, 0x36, 0xce, 0xe6, 0x3d, 0xc7, 0xfe, 0xdf, 0x2b,
  0x7f, 0xea, 0xc0, 0xd9, 0xe7, 0x2d, 0xfb, 0x04, 0x71, 0xac, 0xed, 0xbe,
  0x3c, 0x1c, 0x40, 0xbd, 0xe6, 0xe1, 0x34, 0x78, 0x0b, 0x15, 0x3e, 0x24,
  0x23, 0x45, 0x41, 0xd3, 0xc3, 0x43, 0xff, 0x0f, 0xdd, 0xf8, 0x26, 0x61,
  0x60, 0x28, 0x1b, 0x0b, 0xe2, 0x05, 0xcc, 0xb8, 0xc2, 0x1d, 0x0d, 0x62,
  0x48, 0x40, 0xb0, 0xdb, 0x4e, 0x84, 0x81, 0xfa, 0xda, 0xfe, 0xff, 0xff,
  0x04, 0x00, 0x00, 0x00, 0x08, 0x00, 0x00, 0x00, 0xe7, 0x84, 0x00, 0x00,
  0xf2, 0x5b, 0xff, 0xff, 0xee, 0xfe, 0xff, 0xff, 0x04, 0x00, 0x00, 0x00,
  0x20, 0x00, 0x00, 0x00, 0x00, 0x00, 0x00, 0x00, 0x00, 0x00, 0x00, 0x00,
  0x00, 0x00, 0x00, 0x00, 0x01, 0x00, 0x00, 0x00, 0x00, 0x00, 0x00, 0x00,
  0x01, 0x00, 0x00, 0x00, 0x00, 0x00, 0x00, 0x00, 0x00, 0x00, 0x00, 0x00,
  0x88, 0x94, 0xff, 0xff, 0x8c, 0x94, 0xff, 0xff, 0x0f, 0x00, 0x00, 0x00,
  0x4d, 0x4c, 0x49, 0x52, 0x20, 0x43, 0x6f, 0x6e, 0x76, 0x65, 0x72, 0x74,
  0x65, 0x64, 0x2e, 0x00, 0x01, 0x00, 0x00, 0x00, 0x14, 0x00, 0x00, 0x00,
  0x00, 0x00, 0x0e, 0x00, 0x18, 0x00, 0x14, 0x00, 0x10, 0x00, 0x0c, 0x00,
  0x08, 0x00, 0x04, 0x00, 0x0e, 0x00, 0x00, 0x00, 0x14, 0x00, 0x00, 0x00,
  0x1c, 0x00, 0x00, 0x00, 0x64, 0x07, 0x00, 0x00, 0x68, 0x07, 0x00, 0x00,
  0x6c, 0x07, 0x00, 0x00, 0x04, 0x00, 0x00, 0x00, 0x6d, 0x61, 0x69, 0x6e,
  0x00, 0x00, 0x00, 0x00, 0x1c, 0x00, 0x00, 0x00, 0x00, 0x07, 0x00, 0x00,
  0x98, 0x06, 0x00, 0x00, 0x40, 0x06, 0x00, 0x00, 0x0c, 0x06, 0x00, 0x00,
  0xcc, 0x05, 0x00, 0x00, 0x98, 0x05, 0x00, 0x00, 0x3c, 0x05, 0x00, 0x00,
  0x00, 0x05, 0x00, 0x00, 0xc0, 0x04, 0x00, 0x00, 0x78, 0x04, 0x00, 0x00,
  0x3c, 0x04, 0x00, 0x00, 0x08, 0x04, 0x00, 0x00, 0xc8, 0x03, 0x00, 0x00,
  0x94, 0x03, 0x00, 0x00, 0x48, 0x03, 0x00, 0x00, 0x0c, 0x03, 0x00, 0x00,
  0xcc, 0x02, 0x00, 0x00, 0x84, 0x02, 0x00, 0x00, 0x48, 0x02, 0x00, 0x00,
  0x14, 0x02, 0x00, 0x00, 0xd4, 0x01, 0x00, 0x00, 0x8c, 0x01, 0x00, 0x00,
  0x50, 0x01, 0x00, 0x00, 0x1c, 0x01, 0x00, 0x00, 0xdc, 0x00, 0x00, 0x00,
  0x8c, 0x00, 0x00, 0x00, 0x40, 0x00, 0x00, 0x00, 0x04, 0x00, 0x00, 0x00,
  0xe2, 0xf9, 0xff, 0xff, 0x1c, 0x00, 0x00, 0x00, 0x00, 0x00, 0x00, 0x09,
  0x1c, 0x00, 0x00, 0x00, 0x20, 0x00, 0x00, 0x00, 0x04, 0x00, 0x00, 0x00,
  0x00, 0x00, 0x06, 0x00, 0x08, 0x00, 0x04, 0x00, 0x06, 0x00, 0x00, 0x00,
  0x00, 0x00, 0x80, 0x3f, 0x01, 0x00, 0x00, 0x00, 0x47, 0x00, 0x00, 0x00,
  0x01, 0x00, 0x00, 0x00, 0x46, 0x00, 0x00, 0x00, 0xb6, 0xf9, 0xff, 0xff,
  0x1c, 0x00, 0x00, 0x00, 0x00, 0x00, 0x00, 0x01, 0x24, 0x00, 0x00, 0x00,
  0x28, 0x00, 0x00, 0x00, 0x00, 0x00, 0x0a, 0x00, 0x10, 0x00, 0x0f, 0x00,
  0x08, 0x00, 0x04, 0x00, 0x0a, 0x00, 0x00, 0x00, 0x01, 0x00, 0x00, 0x00,
  0x01, 0x00, 0x00, 0x00, 0x00, 0x00, 0x00, 0x01, 0x01, 0x00, 0x00, 0x00,
  0x46, 0x00, 0x00, 0x00, 0x03, 0x00, 0x00, 0x00, 0x45, 0x00, 0x00, 0x00,
  0x03, 0x00, 0x00, 0x00, 0x02, 0x00, 0x00, 0x00, 0xfe, 0xf9, 0xff, 0xff,
  0x1c, 0x00, 0x00, 0x00, 0x00, 0x00, 0x00, 0x01, 0x28, 0x00, 0x00, 0x00,
  0x2c, 0x00, 0x00, 0x00, 0x0c, 0x00, 0x14, 0x00, 0x13, 0x00, 0x0c, 0x00,
  0x08, 0x00, 0x07, 0x00, 0x0c, 0x00, 0x00, 0x00, 0x00, 0x00, 0x00, 0x01,
  0x01, 0x00, 0x00, 0x00, 0x01, 0x00, 0x00, 0x00, 0x00, 0x00, 0x00, 0x01,
  0x01, 0x00, 0x00, 0x00, 0x45, 0x00, 0x00, 0x00, 0x03, 0x00, 0x00, 0x00,
  0x44, 0x00, 0x00, 0x00, 0x05, 0x00, 0x00, 0x00, 0x04, 0x00, 0x00, 0x00,
  0x4a, 0xfa, 0xff, 0xff, 0x10, 0x00, 0x00, 0x00, 0x00, 0x00, 0x00, 0x01,
  0x18, 0x00, 0x00, 0x00, 0x1c, 0x00, 0x00, 0x00, 0x3c, 0xfa, 0xff, 0xff,
  0x00, 0x00, 0x00, 0x03, 0x01, 0x00, 0x00, 0x00, 0x01, 0x00, 0x00, 0x00,
  0x01, 0x00, 0x00, 0x00, 0x44, 0x00, 0x00, 0x00, 0x03, 0x00, 0x00, 0x00,
  0x43, 0x00, 0x00, 0x00, 0x07, 0x00, 0x00, 0x00, 0x06, 0x00, 0x00, 0x00,
  0xea, 0xfa, 0xff, 0xff, 0x14, 0x00, 0x00, 0x00, 0x00, 0x00, 0x00, 0x0b,
  0x10, 0x00, 0x00, 0x00, 0x14, 0x00, 0x00, 0x00, 0x02, 0x00, 0x00, 0x00,
  0x74, 0x96, 0xff, 0xff, 0x01, 0x00, 0x00, 0x00, 0x43, 0x00, 0x00, 0x00,
  0x02, 0x00, 0x00, 0x00, 0x3f, 0x00, 0x00, 0x00, 0x42, 0x00, 0x00, 0x00,
  0xb6, 0xfa, 0xff, 0xff, 0x10, 0x00, 0x00, 0x00, 0x00, 0x00, 0x00, 0x01,
  0x14, 0x00, 0x00, 0x00, 0x18, 0x00, 0x00, 0x00, 0x5e, 0xfb, 0xff, 0xff,
  0x01, 0x00, 0x00, 0x00, 0x01, 0x00, 0x00, 0x00, 0x01, 0x00, 0x00, 0x00,
  0x42, 0x00, 0x00, 0x00, 0x03, 0x00, 0x00, 0x00, 0x41, 0x00, 0x00, 0x00,
  0x09, 0x00, 0x00, 0x00, 0x08, 0x00, 0x00, 0x00, 0x52, 0xfb, 0xff, 0xff,
  0x14, 0x00, 0x00, 0x00, 0x00, 0x00, 0x00, 0x02, 0x20, 0x00, 0x00, 0x00,
  0x24, 0x00, 0x00, 0x00, 0x01, 0x00, 0x00, 0x00, 0x42, 0xfb, 0xff, 0xff,
  0x00, 0x00, 0x00, 0x03, 0x01, 0x00, 0x00, 0x00, 0x01, 0x00, 0x00, 0x00,
  0x01, 0x00, 0x00, 0x00, 0x01, 0x00, 0x00, 0x00, 0x41, 0x00, 0x00, 0x00,
  0x03, 0x00, 0x00, 0x00, 0x40, 0x00, 0x00, 0x00, 0x0b, 0x00, 0x00, 0x00,
  0x0a, 0x00, 0x00, 0x00, 0x32, 0xfb, 0xff, 0xff, 0x10, 0x00, 0x00, 0x00,
  0x00, 0x00, 0x00, 0x01, 0x18, 0x00, 0x00, 0x00, 0x1c, 0x00, 0x00, 0x00,
  0x24, 0xfb, 0xff, 0xff, 0x00, 0x00, 0x00, 0x03, 0x01, 0x00, 0x00, 0x00,
  0x01, 0x00, 0x00, 0x00, 0x01, 0x00, 0x00, 0x00, 0x40, 0x00, 0x00, 0x00,
  0x03, 0x00, 0x00, 0x00, 0x3f, 0x00, 0x00, 0x00, 0x0d, 0x00, 0x00, 0x00,
  0x0c, 0x00, 0x00, 0x00, 0xd2, 0xfb, 0xff, 0xff, 0x14, 0x00, 0x00, 0x00,
  0x00, 0x00, 0x00, 0x0b, 0x10, 0x00, 0x00, 0x00, 0x14, 0x00, 0x00, 0x00,
  0x02, 0x00, 0x00, 0x00, 0x5c, 0x97, 0xff, 0xff, 0x01, 0x00, 0x00, 0x00,
  0x3f, 0x00, 0x00, 0x00, 0x02, 0x00, 0x00, 0x00, 0x3b, 0x00, 0x00, 0x00,
  0x3e, 0x00, 0x00, 0x00, 0x9e, 0xfb, 0xff, 0xff, 0x10, 0x00, 0x00, 0x00,
  0x00, 0x00, 0x00, 0x01, 0x14, 0x00, 0x00, 0x00, 0x18, 0x00, 0x00, 0x00,
  0x46, 0xfc, 0xff, 0xff, 0x01, 0x00, 0x00, 0x00, 0x01, 0x00, 0x00, 0x00,
  0x01, 0x00, 0x00, 0x00, 0x3e, 0x00, 0x00, 0x00, 0x03, 0x00, 0x00, 0x00,
  0x3d, 0x00, 0x00, 0x00, 0x0f, 0x00, 0x00, 0x00, 0x0e, 0x00, 0x00, 0x00,
  0x3a, 0xfc, 0xff, 0xff, 0x14, 0x00, 0x00, 0x00, 0x00, 0x00, 0x00, 0x02,
  0x20, 0x00, 0x00, 0x00, 0x24, 0x00, 0x00, 0x00, 0x01, 0x00, 0x00, 0x00,
  0x2a, 0xfc, 0xff, 0xff, 0x00, 0x00, 0x00, 0x03, 0x01, 0x00, 0x00, 0x00,
  0x01, 0x00, 0x00, 0x00, 0x01, 0x00, 0x00, 0x00, 0x01, 0x00, 0x00, 0x00,
  0x3d, 0x00, 0x00, 0x00, 0x03, 0x00, 0x00, 0x00, 0x3c, 0x00, 0x00, 0x00,
  0x11, 0x00, 0x00, 0x00, 0x10, 0x00, 0x00, 0x00, 0x1a, 0xfc, 0xff, 0xff,
  0x10, 0x00, 0x00, 0x00, 0x00, 0x00, 0x00, 0x01, 0x18, 0x00, 0x00, 0x00,
  0x1c, 0x00, 0x00, 0x00, 0x0c, 0xfc, 0xff, 0xff, 0x00, 0x00, 0x00, 0x03,
  0x01, 0x00, 0x00, 0x00, 0x01, 0x00, 0x00, 0x00, 0x01, 0x00, 0x00, 0x00,
  0x3c, 0x00, 0x00, 0x00, 0x03, 0x00, 0x00, 0x00, 0x3b, 0x00, 0x00, 0x00,
  0x13, 0x00, 0x00, 0x00, 0x12, 0x00, 0x00, 0x00, 0x56, 0xfc, 0xff, 0xff,
  0x10, 0x00, 0x00, 0x00, 0x00, 0x00, 0x00, 0x01, 0x14, 0x00, 0x00, 0x00,
  0x18, 0x00, 0x00, 0x00, 0xfe, 0xfc, 0xff, 0xff, 0x01, 0x00, 0x00, 0x00,
  0x01, 0x00, 0x00, 0x00, 0x01, 0x00, 0x00, 0x00, 0x3b, 0x00, 0x00, 0x00,
  0x03, 0x00, 0x00, 0x00, 0x3a, 0x00, 0x00, 0x00, 0x15, 0x00, 0x00, 0x00,
  0x14, 0x00, 0x00, 0x00, 0xf2, 0xfc, 0xff, 0xff, 0x14, 0x00, 0x00, 0x00,
  0x00, 0x00, 0x00, 0x02, 0x24, 0x00, 0x00, 0x00, 0x28, 0x00, 0x00, 0x00,
  0x01, 0x00, 0x00, 0x00, 0x2a, 0xfe, 0xff, 0xff, 0x00, 0x00, 0x00, 0x03,
  0x01, 0x00, 0x00, 0x00, 0x02, 0x00, 0x00, 0x00, 0x02, 0x00, 0x00, 0x00,
  0x00, 0x00, 0x00, 0x01, 0x01, 0x00, 0x00, 0x00, 0x3a, 0x00, 0x00, 0x00,
  0x03, 0x00, 0x00, 0x00, 0x39, 0x00, 0x00, 0x00, 0x17, 0x00, 0x00, 0x00,
  0x16, 0x00, 0x00, 0x00, 0x3a, 0xfd, 0xff, 0xff, 0x14, 0x00, 0x00, 0x00,
  0x00, 0x00, 0x00, 0x16, 0x10, 0x00, 0x00, 0x00, 0x14, 0x00, 0x00, 0x00,
  0x03, 0x00, 0x00, 0x00, 0xc4, 0x98, 0xff, 0xff, 0x01, 0x00, 0x00, 0x00,
  0x39, 0x00, 0x00, 0x00, 0x02, 0x00, 0x00, 0x00, 0x38, 0x00, 0x00, 0x00,
  0x01, 0x00, 0x00, 0x00, 0x06, 0xfd, 0xff, 0xff, 0x10, 0x00, 0x00, 0x00,
  0x00, 0x00, 0x00, 0x01, 0x18, 0x00, 0x00, 0x00, 0x1c, 0x00, 0x00, 0x00,
  0xf8, 0xfc, 0xff, 0xff, 0x00, 0x00, 0x00, 0x03, 0x01, 0x00, 0x00, 0x00,
  0x01, 0x00, 0x00, 0x00, 0x01, 0x00, 0x00, 0x00, 0x38, 0x00, 0x00, 0x00,
  0x03, 0x00, 0x00, 0x00, 0x37, 0x00, 0x00, 0x00, 0x19, 0x00, 0x00, 0x00,
  0x18, 0x00, 0x00, 0x00, 0xa6, 0xfd, 0xff, 0xff, 0x14, 0x00, 0x00, 0x00,
  0x00, 0x00, 0x00, 0x0b, 0x10, 0x00, 0x00, 0x00, 0x14, 0x00, 0x00, 0x00,
  0x02, 0x00, 0x00, 0x00, 0x30, 0x99, 0xff, 0xff, 0x01, 0x00, 0x00, 0x00,
  0x37, 0x00, 0x00, 0x00, 0x02, 0x00, 0x00, 0x00, 0x33, 0x00, 0x00, 0x00,
  0x36, 0x00, 0x00, 0x00, 0x72, 0xfd, 0xff, 0xff, 0x10, 0x00, 0x00, 0x00,
  0x00, 0x00, 0x00, 0x01, 0x14, 0x00, 0x00, 0x00, 0x18, 0x00, 0x00, 0x00,
  0x1a, 0xfe, 0xff, 0xff, 0x01, 0x00, 0x00, 0x00, 0x01, 0x00, 0x00, 0x00,
  0x01, 0x00, 0x00, 0x00, 0x36, 0x00, 0x00, 0x00, 0x03, 0x00, 0x00, 0x00,
  0x35, 0x00, 0x00, 0x00, 0x1b, 0x00, 0x00, 0x00, 0x1a, 0x00, 0x00, 0x00,
  0x0e, 0xfe, 0xff, 0xff, 0x14, 0x00, 0x00, 0x00, 0x00, 0x00, 0x00, 0x02,
  0x20, 0x00, 0x00, 0x00, 0x24, 0x00, 0x00, 0x00, 0x01, 0x00, 0x00, 0x00,
  0xfe, 0xfd, 0xff, 0xff, 0x00, 0x00, 0x00, 0x03, 0x01, 0x00, 0x00, 0x00,
  0x01, 0x00, 0x00, 0x00, 0x01, 0x00, 0x00, 0x00, 0x01, 0x00, 0x00, 0x00,
  0x35, 0x00, 0x00, 0x00, 0x03, 0x00, 0x00, 0x00, 0x34, 0x00, 0x00, 0x00,
  0x1d, 0x00, 0x00, 0x00, 0x1c, 0x00, 0x00, 0x00, 0xee, 0xfd, 0xff, 0xff,
  0x10, 0x00, 0x00, 0x00, 0x00, 0x00, 0x00, 0x01, 0x18, 0x00, 0x00, 0x00,
  0x1c, 0x00, 0x00, 0x00, 0xe0, 0xfd, 0xff, 0xff, 0x00, 0x00, 0x00, 0x03,
  0x01, 0x00, 0x00, 0x00, 0x01, 0x00, 0x00, 0x00, 0x01, 0x00, 0x00, 0x00,
  0x34, 0x00, 0x00, 0x00, 0x03, 0x00, 0x00, 0x00, 0x33, 0x00, 0x00, 0x00,
  0x1f, 0x00, 0x00, 0x00, 0x1e, 0x00, 0x00, 0x00, 0x2a, 0xfe, 0xff, 0xff,
  0x10, 0x00, 0x00, 0x00, 0x00, 0x00, 0x00, 0x01, 0x14, 0x00, 0x00, 0x00,
  0x18, 0x00, 0x00, 0x00, 0xd2, 0xfe, 0xff, 0xff, 0x01, 0x00, 0x00, 0x00,
  0x01, 0x00, 0x00, 0x00, 0x01, 0x00, 0x00, 0x00, 0x33, 0x00, 0x00, 0x00,
  0x03, 0x00, 0x00, 0x00, 0x32, 0x00, 0x00, 0x00, 0x21, 0x00, 0x00, 0x00,
  0x20, 0x00, 0x00, 0x00, 0xc6, 0xfe, 0xff, 0xff, 0x24, 0x00, 0x00, 0x00,
  0x00, 0x00, 0x00, 0x02, 0x34, 0x00, 0x00, 0x00, 0x38, 0x00, 0x00, 0x00,
  0x01, 0x00, 0x00, 0x00, 0x00, 0x00, 0x0e, 0x00, 0x18, 0x00, 0x17, 0x00,
  0x10, 0x00, 0x0c, 0x00, 0x08, 0x00, 0x07, 0x00, 0x0e, 0x00, 0x00, 0x00,
  0x00, 0x00, 0x00, 0x03, 0x01, 0x00, 0x00, 0x00, 0x02, 0x00, 0x00, 0x00,
  0x02, 0x00, 0x00, 0x00, 0x00, 0x00, 0x00, 0x01, 0x01, 0x00, 0x00, 0x00,
  0x32, 0x00, 0x00, 0x00, 0x03, 0x00, 0x00, 0x00, 0x31, 0x00, 0x00, 0x00,
  0x23, 0x00, 0x00, 0x00, 0x22, 0x00, 0x00, 0x00, 0x1e, 0xff, 0xff, 0xff,
  0x14, 0x00, 0x00, 0x00, 0x00, 0x00, 0x00, 0x16, 0x10, 0x00, 0x00, 0x00,
  0x14, 0x00, 0x00, 0x00, 0x03, 0x00, 0x00, 0x00, 0xa8, 0x9a, 0xff, 0xff,
  0x01, 0x00, 0x00, 0x00, 0x31, 0x00, 0x00, 0x00, 0x02, 0x00, 0x00, 0x00,
  0x30, 0x00, 0x00, 0x00, 0x01, 0x00, 0x00, 0x00, 0xea, 0xfe, 0xff, 0xff,
  0x10, 0x00, 0x00, 0x00, 0x00, 0x00, 0x00, 0x01, 0x18, 0x00, 0x00, 0x00,
  0x1c, 0x00, 0x00, 0x00, 0xdc, 0xfe, 0xff, 0xff, 0x00, 0x00, 0x00, 0x03,
  0x01, 0x00, 0x00, 0x00, 0x01, 0x00, 0x00, 0x00, 0x01, 0x00, 0x00, 0x00,
  0x30, 0x00, 0x00, 0x00, 0x03, 0x00, 0x00, 0x00, 0x2f, 0x00, 0x00, 0x00,
  0x25, 0x00, 0x00, 0x00, 0x24, 0x00, 0x00, 0x00, 0x8a, 0xff, 0xff, 0xff,
  0x14, 0x00, 0x00, 0x00, 0x00, 0x00, 0x00, 0x0b, 0x10, 0x00, 0x00, 0x00,
  0x14, 0x00, 0x00, 0x00, 0x02, 0x00, 0x00, 0x00, 0x14, 0x9b, 0xff, 0xff,
  0x01, 0x00, 0x00, 0x00, 0x2f, 0x00, 0x00, 0x00, 0x02, 0x00, 0x00, 0x00,
  0x2c, 0x00, 0x00, 0x00, 0x2e, 0x00, 0x00, 0x00, 0x56, 0xff, 0xff, 0xff,
  0x1c, 0x00, 0x00, 0x00, 0x00, 0x00, 0x00, 0x01, 0x20, 0x00, 0x00, 0x00,
  0x24, 0x00, 0x00, 0x00, 0x00, 0x00, 0x0a, 0x00, 0x0c, 0x00, 0x00, 0x00,
  0x08, 0x00, 0x04, 0x00, 0x0a, 0x00, 0x00, 0x00, 0x01, 0x00, 0x00, 0x00,
  0x01, 0x00, 0x00, 0x00, 0x01, 0x00, 0x00, 0x00, 0x2e, 0x00, 0x00, 0x00,
  0x03, 0x00, 0x00, 0x00, 0x2d, 0x00, 0x00, 0x00, 0x27, 0x00, 0x00, 0x00,
  0x26, 0x00, 0x00, 0x00, 0x00, 0x00, 0x0e, 0x00, 0x1a, 0x00, 0x14, 0x00,
  0x10, 0x00, 0x0c, 0x00, 0x0b, 0x00, 0x04, 0x00, 0x0e, 0x00, 0x00, 0x00,
  0x24, 0x00, 0x00, 0x00, 0x00, 0x00, 0x00, 0x02, 0x30, 0x00, 0x00, 0x00,
  0x34, 0x00, 0x00, 0x00, 0x01, 0x00, 0x00, 0x00, 0x00, 0x00, 0x0e, 0x00,
  0x14, 0x00, 0x00, 0x00, 0x10, 0x00, 0x0c, 0x00, 0x08, 0x00, 0x07, 0x00,
  0x0e, 0x00, 0x00, 0x00, 0x00, 0x00, 0x00, 0x03, 0x01, 0x00, 0x00, 0x00,
  0x01, 0x00, 0x00, 0x00, 0x01, 0x00, 0x00, 0x00, 0x01, 0x00, 0x00, 0x00,
  0x2d, 0x00, 0x00, 0x00, 0x03, 0x00, 0x00, 0x00, 0x2c, 0x00, 0x00, 0x00,
  0x29, 0x00, 0x00, 0x00, 0x28, 0x00, 0x00, 0x00, 0x00, 0x00, 0x0e, 0x00,
  0x14, 0x00, 0x00, 0x00, 0x10, 0x00, 0x0c, 0x00, 0x0b, 0x00, 0x04, 0x00,
  0x0e, 0x00, 0x00, 0x00, 0x1c, 0x00, 0x00, 0x00, 0x00, 0x00, 0x00, 0x01,
  0x24, 0x00, 0x00, 0x00, 0x28, 0x00, 0x00, 0x00, 0x0c, 0x00, 0x10, 0x00,
  0x00, 0x00, 0x0c, 0x00, 0x08, 0x00, 0x07, 0x00, 0x0c, 0x00, 0x00, 0x00,
  0x00, 0x00, 0x00, 0x03, 0x02, 0x00, 0x00, 0x00, 0x02, 0x00, 0x00, 0x00,
  0x01, 0x00, 0x00, 0x00, 0x2c, 0x00, 0x00, 0x00, 0x03, 0x00, 0x00, 0x00,
  0x00, 0x00, 0x00, 0x00, 0x2b, 0x00, 0x00, 0x00, 0x2a, 0x00, 0x00, 0x00,
  0x01, 0x00, 0x00, 0x00, 0x47, 0x00, 0x00, 0x00, 0x01, 0x00, 0x00, 0x00,
  0x00, 0x00, 0x00, 0x00, 0x48, 0x00, 0x00, 0x00, 0x14, 0x64, 0x00, 0x00,
  0xa0, 0x63, 0x00, 0x00, 0x20, 0x63, 0x00, 0x00, 0xa4, 0x62, 0x00, 0x00,
  0xc0, 0x60, 0x00, 0x00, 0xdc, 0x5e, 0x00, 0x00, 0x30, 0x5c, 0x00, 0x00,
  0x84, 0x59, 0x00, 0x00, 0xb8, 0x58, 0x00, 0x00, 0xec, 0x57, 0x00, 0x00,
  0x38, 0x55, 0x00, 0x00, 0x24, 0x52, 0x00, 0x00, 0x78, 0x4f, 0x00, 0x00,
  0xcc, 0x4c, 0x00, 0x00, 0x00, 0x4c, 0x00, 0x00, 0x34, 0x4b, 0x00, 0x00,
  0x80, 0x48, 0x00, 0x00, 0x80, 0x45, 0x00, 0x00, 0xd0, 0x42, 0x00, 0x00,
  0x24, 0x40, 0x00, 0x00, 0x58, 0x3f, 0x00, 0x00, 0x8c, 0x3e, 0x00, 0x00,
  0xd8, 0x3b, 0x00, 0x00, 0xd8, 0x38, 0x00, 0x00, 0x28, 0x36, 0x00, 0x00,
  0x7c, 0x33, 0x00, 0x00, 0xb0, 0x32, 0x00, 0x00, 0xe4, 0x31, 0x00, 0x00,
  0x30, 0x2f, 0x00, 0x00, 0x30, 0x2c, 0x00, 0x00, 0x80, 0x29, 0x00, 0x00,
  0xd4, 0x26, 0x00, 0x00, 0x08, 0x26, 0x00, 0x00, 0x3c, 0x25, 0x00, 0x00,
  0x88, 0x22, 0x00, 0x00, 0x88, 0x1f, 0x00, 0x00, 0xd8, 0x1c, 0x00, 0x00,
  0x2c, 0x1a, 0x00, 0x00, 0x58, 0x19, 0x00, 0x00, 0x84, 0x18, 0x00, 0x00,
  0xb0, 0x17, 0x00, 0x00, 0x80, 0x16, 0x00, 0x00, 0xb8, 0x15, 0x00, 0x00,
  0xf4, 0x14, 0x00, 0x00, 0x28, 0x14, 0x00, 0x00, 0x24, 0x13, 0x00, 0x00,
  0x50, 0x12, 0x00, 0x00, 0xd4, 0x11, 0x00, 0x00, 0xf0, 0x10, 0x00, 0x00,
  0x7c, 0x10, 0x00, 0x00, 0x88, 0x0f, 0x00, 0x00, 0xc4, 0x0e, 0x00, 0x00,
  0xe0, 0x0d, 0x00, 0x00, 0xec, 0x0c, 0x00, 0x00, 0x28, 0x0c, 0x00, 0x00,
  0xb4, 0x0b, 0x00, 0x00, 0xd0, 0x0a, 0x00, 0x00, 0x5c, 0x0a, 0x00, 0x00,
  0x68, 0x09, 0x00, 0x00, 0xa4, 0x08, 0x00, 0x00, 0xc0, 0x07, 0x00, 0x00,
  0xcc, 0x06, 0x00, 0x00, 0x08, 0x06, 0x00, 0x00, 0x94, 0x05, 0x00, 0x00,
  0xb0, 0x04, 0x00, 0x00, 0xbc, 0x03, 0x00, 0x00, 0x18, 0x03, 0x00, 0x00,
  0xa4, 0x02, 0x00, 0x00, 0xe0, 0x01, 0x00, 0x00, 0x24, 0x01, 0x00, 0x00,
  0x78, 0x00, 0x00, 0x00, 0x04, 0x00, 0x00, 0x00, 0x22, 0x9d, 0xff, 0xff,
  0x00, 0x00, 0x00, 0x01, 0x14, 0x00, 0x00, 0x00, 0x30, 0x00, 0x00, 0x00,
  0x48, 0x00, 0x00, 0x00, 0x00, 0x00, 0x00, 0x09, 0x44, 0x00, 0x00, 0x00,
  0x0c, 0x9d, 0xff, 0xff, 0x08, 0x00, 0x00, 0x00, 0x10, 0x00, 0x00, 0x00,
  0x01, 0x00, 0x00, 0x00, 0x80, 0xff, 0xff, 0xff, 0xff, 0xff, 0xff, 0xff,
  0x01, 0x00, 0x00, 0x00, 0x00, 0x00, 0x80, 0x3b, 0x19, 0x00, 0x00, 0x00,
  0x53, 0x74, 0x61, 0x74, 0x65, 0x66, 0x75, 0x6c, 0x50, 0x61, 0x72, 0x74,
  0x69, 0x74, 0x69, 0x6f, 0x6e, 0x65, 0x64, 0x43, 0x61, 0x6c, 0x6c, 0x3a,
  0x30, 0x00, 0x00, 0x00, 0x04, 0x00, 0x00, 0x00, 0x01, 0x00, 0x00, 0x00,
  0x0c, 0x00, 0x00, 0x00, 0x0c, 0x00, 0x00, 0x00, 0x02, 0x00, 0x00, 0x00,
  0x92, 0x9d, 0xff, 0xff, 0x00, 0x00, 0x00, 0x01, 0x14, 0x00, 0x00, 0x00,
  0x30, 0x00, 0x00, 0x00, 0x47, 0x00, 0x00, 0x00, 0x00, 0x00, 0x00, 0x09,
  0x7c, 0x00, 0x00, 0x00, 0x7c, 0x9d, 0xff, 0xff, 0x08, 0x00, 0x00, 0x00,
  0x10, 0x00, 0x00, 0x00, 0x01, 0x00, 0x00, 0x00, 0xf1, 0xff, 0xff, 0xff,
  0xff, 0xff, 0xff, 0xff, 0x01, 0x00, 0x00, 0x00, 0x7a, 0xeb, 0xe5, 0x3d,
  0x52, 0x00, 0x00, 0x00, 0x6d, 0x6f, 0x64, 0x65, 0x6c, 0x5f, 0x31, 0x2f,
  0x6c, 0x6f, 0x67, 0x69, 0x74, 0x73, 0x2f, 0x42, 0x69, 0x61, 0x73, 0x41,
  0x64, 0x64, 0x3b, 0x6d, 0x6f, 0x64, 0x65, 0x6c, 0x5f, 0x31, 0x2f, 0x6c,
  0x6f, 0x67, 0x69, 0x74, 0x73, 0x2f, 0x43, 0x6f, 0x6e, 0x76, 0x32, 0x44,
  0x3b, 0x6d, 0x6f, 0x64, 0x65, 0x6c, 0x5f, 0x31, 0x2f, 0x6c, 0x6f, 0x67,
  0x69, 0x74, 0x73, 0x2f, 0x42, 0x69, 0x61, 0x73, 0x41, 0x64, 0x64, 0x2f,
  0x52, 0x65, 0x61, 0x64, 0x56, 0x61, 0x72, 0x69, 0x61, 0x62, 0x6c, 0x65,
  0x4f, 0x70, 0x00, 0x00, 0x04, 0x00, 0x00, 0x00, 0x01, 0x00, 0x00, 0x00,
  0x0c, 0x00, 0x00, 0x00, 0x0c, 0x00, 0x00, 0x00, 0x02, 0x00, 0x00, 0x00,
  0x3a, 0x9e, 0xff, 0xff, 0x00, 0x00, 0x00, 0x01, 0x14, 0x00, 0x00, 0x00,
  0x34, 0x00, 0x00, 0x00, 0x46, 0x00, 0x00, 0x00, 0x00, 0x00, 0x00, 0x09,
  0x8c, 0x00, 0x00, 0x00, 0x24, 0x9e, 0xff, 0xff, 0x08, 0x00, 0x00, 0x00,
  0x14, 0x00, 0x00, 0x00, 0x01, 0x00, 0x00, 0x00, 0x80, 0xff, 0xff, 0xff,
  0xff, 0xff, 0xff, 0xff, 0x00, 0x00, 0x00, 0x00, 0x01, 0x00, 0x00, 0x00,
  0x41, 0x63, 0xea, 0x3c, 0x5e, 0x00, 0x00, 0x00, 0x6d, 0x6f, 0x64, 0x65,
  0x6c, 0x5f, 0x31, 0x2f, 0x68, 0x65, 0x61, 0x64, 0x2f, 0x52, 0x65, 0x6c,
  0x75, 0x3b, 0x6d, 0x6f, 0x64, 0x65, 0x6c, 0x5f, 0x31, 0x2f, 0x68, 0x65,
  0x61, 0x64, 0x2f, 0x42, 0x69, 0x61, 0x73, 0x41, 0x64, 0x64, 0x3b, 0x6d,
  0x6f, 0x64, 0x65, 0x6c, 0x5f, 0x31, 0x2f, 0x68, 0x65, 0x61, 0x64, 0x2f,
  0x43, 0x6f, 0x6e, 0x76, 0x32, 0x44, 0x3b, 0x6d, 0x6f, 0x64, 0x65, 0x6c,
  0x5f, 0x31, 0x2f, 0x68, 0x65, 0x61, 0x64, 0x2f, 0x42, 0x69, 0x61, 0x73,
  0x41, 0x64, 0x64, 0x2f, 0x52, 0x65, 0x61, 0x64, 0x56, 0x61, 0x72, 0x69,
  0x61, 0x62, 0x6c, 0x65, 0x4f, 0x70, 0x00, 0x00, 0x04, 0x00, 0x00, 0x00,
  0x01, 0x00, 0x00, 0x00, 0x0c, 0x00, 0x00, 0x00, 0x0c, 0x00, 0x00, 0x00,
  0x20, 0x00, 0x00, 0x00, 0xf2, 0x9e, 0xff, 0xff, 0x00, 0x00, 0x00, 0x01,
  0x14, 0x00, 0x00, 0x00, 0x30, 0x00, 0x00, 0x00, 0x45, 0x00, 0x00, 0x00,
  0x00, 0x00, 0x00, 0x09, 0x94, 0x00, 0x00, 0x00, 0xdc, 0x9e, 0xff, 0xff,
  0x08, 0x00, 0x00, 0x00, 0x10, 0x00, 0x00, 0x00, 0x01, 0x00, 0x00, 0x00,
  0x80, 0xff, 0xff, 0xff, 0xff, 0xff, 0xff, 0xff, 0x01, 0x00, 0x00, 0x00,
  0x82, 0x48, 0xab, 0x3c, 0x6a, 0x00, 0x00, 0x00, 0x6d, 0x6f, 0x64, 0x65,
  0x6c, 0x5f, 0x31, 0x2f, 0x62, 0x6c, 0x6f, 0x63, 0x6b, 0x5f, 0x36, 0x5f,
  0x65, 0x78, 0x70, 0x61, 0x6e, 0x64, 0x5f, 0x72, 0x65, 0x6c, 0x75, 0x2f,
  0x52, 0x65, 0x6c, 0x75, 0x36, 0x3b, 0x6d, 0x6f, 0x64, 0x65, 0x6c, 0x5f,
  0x31, 0x2f, 0x62, 0x6c, 0x6f, 0x63, 0x6b, 0x5f, 0x36, 0x5f, 0x65, 0x78,
  0x70, 0x61, 0x6e, 0x64, 0x5f, 0x42, 0x4e, 0x2f, 0x46, 0x75, 0x73, 0x65,
  0x64, 0x42, 0x61, 0x74, 0x63, 0x68, 0x4e, 0x6f, 0x72, 0x6d, 0x56, 0x33,
  0x3b, 0x6d, 0x6f, 0x64, 0x65, 0x6c, 0x5f, 0x31, 0x2f, 0x62, 0x6c, 0x6f,
  0x63, 0x6b, 0x5f, 0x36, 0x5f, 0x65, 0x78, 0x70, 0x61, 0x6e, 0x64, 0x2f,
  0x43, 0x6f, 0x6e, 0x76, 0x32, 0x44, 0x00, 0x00, 0x04, 0x00, 0x00, 0x00,
  0x01, 0x00, 0x00, 0x00, 0x0c, 0x00, 0x00, 0x00, 0x0c, 0x00, 0x00, 0x00,
  0x30, 0x00, 0x00, 0x00, 0xb2, 0x9f, 0xff, 0xff, 0x00, 0x00, 0x00, 0x01,
  0x14, 0x00, 0x00, 0x00, 0x34, 0x00, 0x00, 0x00, 0x44, 0x00, 0x00, 0x00,
  0x00, 0x00, 0x00, 0x09, 0x44, 0x00, 0x00, 0x00, 0x9c, 0x9f, 0xff, 0xff,
  0x08, 0x00, 0x00, 0x00, 0x14, 0x00, 0x00, 0x00, 0x01, 0x00, 0x00, 0x00,
  0xf8, 0xff, 0xff, 0xff, 0xff, 0xff, 0xff, 0xff, 0x00, 0x00, 0x00, 0x00,
  0x01, 0x00, 0x00, 0x00, 0x26, 0xbc, 0x90, 0x3d, 0x17, 0x00, 0x00, 0x00,
  0x6d, 0x6f, 0x64, 0x65, 0x6c, 0x5f, 0x31, 0x2f, 0x62, 0x6c, 0x6f, 0x63,
  0x6b, 0x5f, 0x35, 0x5f, 0x61, 0x64, 0x64, 0x2f, 0x61, 0x64, 0x64, 0x00,
  0x04, 0x00, 0x00, 0x00, 0x01, 0x00, 0x00, 0x00, 0x0c, 0x00, 0x00, 0x00,
  0x0c, 0x00, 0x00, 0x00, 0x08, 0x00, 0x00, 0x00, 0x22, 0xa0, 0xff, 0xff,
  0x00, 0x00, 0x00, 0x01, 0x14, 0x00, 0x00, 0x00, 0x30, 0x00, 0x00, 0x00,
  0x43, 0x00, 0x00, 0x00, 0x00, 0x00, 0x00, 0x09, 0x74, 0x00, 0x00, 0x00,
  0x0c, 0xa0, 0xff, 0xff, 0x08, 0x00, 0x00, 0x00, 0x10, 0x00, 0x00, 0x00,
  0x01, 0x00, 0x00, 0x00, 0xe7, 0xff, 0xff, 0xff, 0xff, 0xff, 0xff, 0xff,
  0x01, 0x00, 0x00, 0x00, 0x39, 0x3a, 0x50, 0x3d, 0x4a, 0x00, 0x00, 0x00,
  0x6d, 0x6f, 0x64, 0x65, 0x6c, 0x5f, 0x31, 0x2f, 0x62, 0x6c, 0x6f, 0x63,
  0x6b, 0x5f, 0x35, 0x5f, 0x70, 0x72, 0x6f, 0x6a, 0x65, 0x63, 0x74, 0x5f,
  0x42, 0x4e, 0x2f, 0x46, 0x75, 0x73, 0x65, 0x64, 0x42, 0x61, 0x74, 0x63,
  0x68, 0x4e, 0x6f, 0x72, 0x6d, 0x56, 0x33, 0x3b, 0x6d, 0x6f, 0x64, 0x65,
  0x6c, 0x5f, 0x31, 0x2f, 0x62, 0x6c, 0x6f, 0x63, 0x6b, 0x5f, 0x35, 0x5f,
  0x70, 0x72, 0x6f, 0x6a, 0x65, 0x63, 0x74, 0x2f, 0x43, 0x6f, 0x6e, 0x76,
  0x32, 0x44, 0x00, 0x00, 0x04, 0x00, 0x00, 0x00, 0x01, 0x00, 0x00, 0x00,
  0x0c, 0x00, 0x00, 0x00, 0x0c, 0x00, 0x00, 0x00, 0x08, 0x00, 0x00, 0x00,
  0xc2, 0xa0, 0xff, 0xff, 0x00, 0x00, 0x00, 0x01, 0x14, 0x00, 0x00, 0x00,
  0x34, 0x00, 0x00, 0x00, 0x42, 0x00, 0x00, 0x00, 0x00, 0x00, 0x00, 0x09,
  0xc4, 0x00, 0x00, 0x00, 0xac, 0xa0, 0xff, 0xff, 0x08, 0x00, 0x00, 0x00,
  0x14, 0x00, 0x00, 0x00, 0x01, 0x00, 0x00, 0x00, 0x80, 0xff, 0xff, 0xff,
  0xff, 0xff, 0xff, 0xff, 0x00, 0x00, 0x00, 0x00, 0x01, 0x00, 0x00, 0x00,
  0xc1, 0xc0, 0xc0, 0x3c, 0x94, 0x00, 0x00, 0x00, 0x6d, 0x6f, 0x64, 0x65,
  0x6c, 0x5f, 0x31, 0x2f, 0x62, 0x6c, 0x6f, 0x63, 0x6b, 0x5f, 0x35, 0x5f,
  0x64, 0x65, 0x70, 0x74, 0x68, 0x77, 0x69, 0x73, 0x65, 0x5f, 0x72, 0x65,
  0x6c, 0x75, 0x2f, 0x52, 0x65, 0x6c, 0x75, 0x36, 0x3b, 0x6d, 0x6f, 0x64,
  0x65, 0x6c, 0x5f, 0x31, 0x2f, 0x62, 0x6c, 0x6f, 0x63, 0x6b, 0x5f, 0x35,
  0x5f, 0x64, 0x65, 0x70, 0x74, 0x68, 0x77, 0x69, 0x73, 0x65, 0x5f, 0x42,
  0x4e, 0x2f, 0x46, 0x75, 0x73, 0x65, 0x64, 0x42, 0x61, 0x74, 0x63, 0x68,
  0x4e, 0x6f, 0x72, 0x6d, 0x56, 0x33, 0x3b, 0x6d, 0x6f, 0x64, 0x65, 0x6c,
  0x5f, 0x31, 0x2f, 0x62, 0x6c, 0x6f, 0x63, 0x6b, 0x5f, 0x36, 0x5f, 0x65,
  0x78, 0x70, 0x61, 0x6e, 0x64, 0x2f, 0x43, 0x6f, 0x6e, 0x76, 0x32, 0x44,
  0x3b, 0x6d, 0x6f, 0x64, 0x65, 0x6c, 0x5f, 0x31, 0x2f, 0x62, 0x6c, 0x6f,
  0x63, 0x6b, 0x5f, 0x35, 0x5f, 0x64, 0x65, 0x70, 0x74, 0x68, 0x77, 0x69,
  0x73, 0x65, 0x2f, 0x64, 0x65, 0x70, 0x74, 0x68, 0x77, 0x69, 0x73, 0x65,
  0x00, 0x00, 0x00, 0x00, 0x04, 0x00, 0x00, 0x00, 0x01, 0x00, 0x00, 0x00,
  0x0c, 0x00, 0x00, 0x00, 0x0c, 0x00, 0x00, 0x00, 0x30, 0x00, 0x00, 0x00,
  0xb2, 0xa1, 0xff, 0xff, 0x00, 0x00, 0x00, 0x01, 0x14, 0x00, 0x00, 0x00,
  0x30, 0x00, 0x00, 0x00, 0x41, 0x00, 0x00, 0x00, 0x00, 0x00, 0x00, 0x09,
  0xb4, 0x00, 0x00, 0x00, 0x9c, 0xa1, 0xff, 0xff, 0x08, 0x00, 0x00, 0x00,
  0x10, 0x00, 0x00, 0x00, 0x01, 0x00, 0x00, 0x00, 0x80, 0xff, 0xff, 0xff,
  0xff, 0xff, 0xff, 0xff, 0x01, 0x00, 0x00, 0x00, 0x4d, 0x24, 0x7a, 0x3c,
  0x88, 0x00, 0x00, 0x00, 0x6d, 0x6f, 0x64, 0x65, 0x6c, 0x5f, 0x31, 0x2f,
  0x62, 0x6c, 0x6f, 0x63, 0x6b, 0x5f, 0x35, 0x5f, 0x65, 0x78, 0x70, 0x61,
  0x6e, 0x64, 0x5f, 0x72, 0x65, 0x6c, 0x75, 0x2f, 0x52, 0x65, 0x6c, 0x75,
  0x36, 0x3b, 0x6d, 0x6f, 0x64, 0x65, 0x6c, 0x5f, 0x31, 0x2f, 0x62, 0x6c,
  0x6f, 0x63, 0x6b, 0x5f, 0x35, 0x5f, 0x65, 0x78, 0x70, 0x61, 0x6e, 0x64,
  0x5f, 0x42, 0x4e, 0x2f, 0x46, 0x75, 0x73, 0x65, 0x64, 0x42, 0x61, 0x74,
  0x63, 0x68, 0x4e, 0x6f, 0x72, 0x6d, 0x56, 0x33, 0x3b, 0x6d, 0x6f, 0x64,
  0x65, 0x6c, 0x5f, 0x31, 0x2f, 0x62, 0x6c, 0x6f, 0x63, 0x6b, 0x5f, 0x36,
  0x5f, 0x65, 0x78, 0x70, 0x61, 0x6e, 0x64, 0x2f, 0x43, 0x6f, 0x6e, 0x76,
  0x32, 0x44, 0x3b, 0x6d, 0x6f, 0x64, 0x65, 0x6c, 0x5f, 0x31, 0x2f, 0x62,
  0x6c, 0x6f, 0x63, 0x6b, 0x5f, 0x35, 0x5f, 0x65, 0x78, 0x70, 0x61, 0x6e,
  0x64, 0x2f, 0x43, 0x6f, 0x6e, 0x76, 0x32, 0x44, 0x00, 0x00, 0x00, 0x00,
  0x04, 0x00, 0x00, 0x00, 0x01, 0x00, 0x00, 0x00, 0x0c, 0x00, 0x00, 0x00,
  0x0c, 0x00, 0x00, 0x00, 0x30, 0x00, 0x00, 0x00, 0x92, 0xa2, 0xff, 0xff,
  0x00, 0x00, 0x00, 0x01, 0x14, 0x00, 0x00, 0x00, 0x34, 0x00, 0x00, 0x00,
  0x40, 0x00, 0x00, 0x00, 0x00, 0x00, 0x00, 0x09, 0x44, 0x00, 0x00, 0x00,
  0x7c, 0xa2, 0xff, 0xff, 0x08, 0x00, 0x00, 0x00, 0x14, 0x00, 0x00, 0x00,
  0x01, 0x00, 0x00, 0x00, 0xf4, 0xff, 0xff, 0xff, 0xff, 0xff, 0xff, 0xff,
  0x00, 0x00, 0x00, 0x00, 0x01, 0x00, 0x00, 0x00, 0x9a, 0xd3, 0x5a, 0x3d,
  0x17, 0x00, 0x00, 0x00, 0x6d, 0x6f, 0x64, 0x65, 0x6c, 0x5f, 0x31, 0x2f,
  0x62, 0x6c, 0x6f, 0x63, 0x6b, 0x5f, 0x34, 0x5f, 0x61, 0x64, 0x64, 0x2f,
  0x61, 0x64, 0x64, 0x00, 0x04, 0x00, 0x00, 0x00, 0x01, 0x00, 0x00, 0x00,
  0x0c, 0x00, 0x00, 0x00, 0x0c, 0x00, 0x00, 0x00, 0x08, 0x00, 0x00, 0x00,
  0x02, 0xa3, 0xff, 0xff, 0x00, 0x00, 0x00, 0x01, 0x14, 0x00, 0x00, 0x00,
  0x30, 0x00, 0x00, 0x00, 0x3f, 0x00, 0x00, 0x00, 0x00, 0x00, 0x00, 0x09,
  0x94, 0x00, 0x00, 0x00, 0xec, 0xa2, 0xff, 0xff, 0x08, 0x00, 0x00, 0x00,
  0x10, 0x00, 0x00, 0x00, 0x01, 0x00, 0x00, 0x00, 0xeb, 0xff, 0xff, 0xff,
  0xff, 0xff, 0xff, 0xff, 0x01, 0x00, 0x00, 0x00, 0xb1, 0x07, 0x20, 0x3d,
  0x69, 0x00, 0x00, 0x00, 0x6d, 0x6f, 0x64, 0x65, 0x6c, 0x5f, 0x31, 0x2f,
  0x62, 0x6c, 0x6f, 0x63, 0x6b, 0x5f, 0x34, 0x5f, 0x70, 0x72, 0x6f, 0x6a,
  0x65, 0x63, 0x74, 0x5f, 0x42, 0x4e, 0x2f, 0x46, 0x75, 0x73, 0x65, 0x64,
  0x42, 0x61, 0x74, 0x63, 0x68, 0x4e, 0x6f, 0x72, 0x6d, 0x56, 0x33, 0x3b,
  0x6d, 0x6f, 0x64, 0x65, 0x6c, 0x5f, 0x31, 0x2f, 0x62, 0x6c, 0x6f, 0x63,
  0x6b, 0x5f, 0x35, 0x5f, 0x70, 0x72, 0x6f, 0x6a, 0x65, 0x63, 0x74, 0x2f,
  0x43, 0x6f, 0x6e, 0x76, 0x32, 0x44, 0x3b, 0x6d, 0x6f, 0x64, 0x65, 0x6c,
  0x5f, 0x31, 0x2f, 0x62, 0x6c, 0x6f, 0x63, 0x6b, 0x5f, 0x34, 0x5f, 0x70,
